<unk>	0
<s>	0
</s>	0
▁t	-0
ou	-1
he	-2
▁a	-3
▁I	-4
in	-5
▁w	-6
re	-7
▁s	-8
▁y	-9
ha	-10
▁you	-11
▁to	-12
on	-13
is	-14
▁m	-15
▁d	-16
ve	-17
▁b	-18
▁T	-19
▁c	-20
▁the	-21
om	-22
ing	-23
an	-24
▁f	-25
▁l	-26
ed	-27
ll	-28
it	-29
or	-30
hat	-31
en	-32
er	-33
▁n	-34
▁g	-35
▁p	-36
▁ha	-37
as	-38
ow	-39
▁W	-40
▁o	-41
▁h	-42
ar	-43
▁th	-44
▁is	-45
es	-46
ot	-47
at	-48
▁be	-49
▁H	-50
▁he	-51
▁Tom	-52
id	-53
▁in	-54
et	-55
ay	-56
▁of	-57
ld	-58
▁do	-59
le	-60
us	-61
▁me	-62
ke	-63
▁that	-64
▁e	-65
▁The	-66
▁Y	-67
▁an	-68
▁You	-69
ver	-70
im	-71
▁He	-72
▁was	-73
oo	-74
gh	-75
▁on	-76
▁re	-77
ic	-78
▁it	-79
▁have	-80
▁li	-81
ant	-82
▁k	-83
▁for	-84
▁we	-85
▁st	-86
▁S	-87
▁D	-88
ould	-89
▁don	-90
▁want	-91
▁your	-92
ght	-93
▁this	-94
ri	-95
ch	-96
out	-97
▁ne	-98
al	-99
▁not	-100
▁kn	-101
▁go	-102
ad	-103
▁can	-104
▁We	-105
st	-106
▁my	-107
ome	-108
se	-109
un	-110
▁know	-111
ly	-112
ent	-113
▁are	-114
very	-115
▁did	-116
▁A	-117
▁M	-118
ith	-119
her	-120
▁with	-121
▁It	-122
ee	-123
pp	-124
ter	-125
▁like	-126
ro	-127
▁She	-128
all	-129
ill	-130
one	-131
ion	-132
ut	-133
ac	-134
ink	-135
▁at	-136
hing	-137
▁as	-138
ust	-139
am	-140
▁sh	-141
ir	-142
ook	-143
▁su	-144
▁what	-145
▁j	-146
▁ab	-147
ain	-148
▁all	-149
▁What	-150
ake	-151
▁him	-152
▁think	-153
▁any	-154
▁his	-155
ore	-156
▁Do	-157
▁wor	-158
▁te	-159
if	-160
ry	-161
▁C	-162
ce	-163
end	-164
▁r	-165
ur	-166
▁so	-167
▁tim	-168
up	-169
▁They	-170
▁and	-171
▁us	-172
▁al	-173
op	-174
▁Wh	-175
ea	-176
ood	-177
▁about	-178
ct	-179
▁get	-180
▁time	-181
▁Th	-182
▁here	-183
▁very	-184
han	-185
▁wh	-186
ren	-187
▁see	-188
▁out	-189
ong	-190
▁This	-191
ind	-192
ive	-193
▁didn	-194
▁up	-195
ary	-196
ally	-197
red	-198
▁That	-199
▁had	-200
▁How	-201
▁sp	-202
▁her	-203
▁tr	-204
ight	-205
ble	-206
ul	-207
▁happ	-208
▁were	-209
▁pl	-210
▁Don	-211
▁lo	-212
ge	-213
▁ex	-214
▁need	-215
▁has	-216
▁will	-217
nd	-218
est	-219
il	-220
▁un	-221
alk	-222
▁one	-223
rom	-224
day	-225
ast	-226
▁going	-227
ase	-228
▁sa	-229
▁should	-230
▁no	-231
▁just	-232
here	-233
▁Are	-234
▁look	-235
art	-236
lp	-237
ate	-238
ie	-239
and	-240
qu	-241
ist	-242
▁good	-243
▁L	-244
▁de	-245
▁help	-246
ame	-247
ice	-248
hen	-249
▁Mary	-250
▁too	-251
thing	-252
▁work	-253
▁would	-254
der	-255
▁there	-256
▁P	-257
ave	-258
ought	-259
ak	-260
ss	-261
▁com	-262
▁could	-263
ess	-264
▁from	-265
▁Why	-266
ear	-267
lease	-268
▁My	-269
our	-270
▁by	-271
▁really	-272
ack	-273
▁E	-274
▁some	-275
▁every	-276
dy	-277
▁tell	-278
▁man	-279
lf	-280
▁ag	-281
ays	-282
omet	-283
▁co	-284
▁se	-285
▁con	-286
▁does	-287
▁N	-288
ation	-289
▁pro	-290
▁talk	-291
riend	-292
▁been	-293
▁F	-294
ig	-295
ck	-296
▁ca	-297
▁come	-298
▁qu	-299
other	-300
ous	-301
▁now	-302
▁more	-303
▁B	-304
▁than	-305
ish	-306
▁got	-307
ers	-308
ol	-309
▁ri	-310
▁never	-311
▁somet	-312
▁Can	-313
ep	-314
▁There	-315
fe	-316
row	-317
▁int	-318
▁ch	-319
ree	-320
▁if	-321
▁car	-322
▁Is	-323
▁ar	-324
▁happen	-325
ost	-326
▁am	-327
▁mu	-328
ort	-329
▁wr	-330
ound	-331
▁en	-332
▁ask	-333
▁eat	-334
ap	-335
▁af	-336
▁but	-337
▁home	-338
▁something	-339
▁much	-340
▁cl	-341
ine	-342
▁v	-343
ob	-344
▁who	-345
▁ro	-346
▁friend	-347
ather	-348
▁right	-349
▁read	-350
▁say	-351
▁off	-352
eel	-353
ite	-354
own	-355
▁pre	-356
▁take	-357
▁Did	-358
▁make	-359
▁won	-360
▁how	-361
um	-362
ard	-363
▁Let	-364
▁feel	-365
self	-366
oney	-367
▁love	-368
▁when	-369
▁she	-370
ody	-371
▁book	-372
itt	-373
▁long	-374
▁G	-375
▁they	-376
ick	-377
▁le	-378
ning	-379
▁money	-380
▁bus	-381
▁last	-382
▁sure	-383
▁exp	-384
▁back	-385
▁thought	-386
os	-387
ure	-388
▁ad	-389
▁mad	-390
▁bet	-391
▁fe	-392
▁new	-393
▁stu	-394
ough	-395
▁anything	-396
ool	-397
ra	-398
▁bel	-399
ried	-400
eak	-401
ng	-402
▁or	-403
ide	-404
ild	-405
▁Where	-406
ass	-407
▁Please	-408
▁doesn	-409
▁day	-410
th	-411
▁lot	-412
▁thing	-413
eop	-414
▁wat	-415
eople	-416
▁ke	-417
▁told	-418
▁O	-419
▁again	-420
ect	-421
oy	-422
▁sm	-423
hed	-424
▁must	-425
ieve	-426
▁br	-427
▁bu	-428
▁under	-429
▁way	-430
ag	-431
▁let	-432
▁made	-433
▁speak	-434
▁im	-435
nt	-436
▁lea	-437
▁live	-438
▁Who	-439
▁ac	-440
▁If	-441
em	-442
▁dr	-443
pt	-444
ouse	-445
▁old	-446
▁care	-447
ber	-448
▁said	-449
ving	-450
▁people	-451
▁went	-452
▁believe	-453
▁comp	-454
▁year	-455
ther	-456
ways	-457
▁give	-458
▁call	-459
▁house	-460
ait	-461
▁always	-462
▁J	-463
▁Have	-464
▁still	-465
▁only	-466
▁doing	-467
ach	-468
▁happy	-469
▁har	-470
orrow	-471
urn	-472
▁over	-473
rench	-474
▁better	-475
ress	-476
▁tw	-477
▁room	-478
▁French	-479
▁pr	-480
▁stay	-481
▁aw	-482
body	-483
ue	-484
▁app	-485
▁our	-486
▁them	-487
age	-488
▁job	-489
▁leave	-490
chool	-491
▁today	-492
ft	-493
▁dis	-494
fore	-495
ose	-496
▁night	-497
▁gu	-498
ts	-499
▁rem	-500
▁po	-501
▁play	-502
▁before	-503
ace	-504
▁school	-505
▁try	-506
▁down	-507
▁many	-508
iss	-509
▁child	-510
able	-511
▁wait	-512
ittle	-513
▁hand	-514
▁little	-515
▁mo	-516
▁part	-517
▁isn	-518
▁underst	-519
ful	-520
ester	-521
get	-522
ity	-523
ired	-524
▁after	-525
ty	-526
ang	-527
▁chan	-528
leep	-529
▁wanted	-530
blem	-531
ting	-532
▁problem	-533
▁bl	-534
▁plan	-535
▁Every	-536
▁well	-537
esterday	-538
▁father	-539
reat	-540
ek	-541
ff	-542
iz	-543
ell	-544
▁pa	-545
▁happened	-546
use	-547
▁alone	-548
▁bec	-549
▁other	-550
ict	-551
ise	-552
▁where	-553
ied	-554
▁tom	-555
▁week	-556
▁hard	-557
▁understand	-558
ew	-559
▁left	-560
▁find	-561
▁dog	-562
ved	-563
▁seem	-564
▁tomorrow	-565
▁fin	-566
xt	-567
▁fa	-568
▁imp	-569
▁yesterday	-570
▁hop	-571
▁enough	-572
▁sc	-573
act	-574
ire	-575
▁op	-576
rest	-577
▁sw	-578
estion	-579
▁please	-580
▁meet	-581
▁gl	-582
ised	-583
ount	-584
▁dif	-585
ven	-586
▁three	-587
ies	-588
▁asked	-589
ab	-590
▁into	-591
ark	-592
▁friends	-593
▁hur	-594
▁done	-595
▁drink	-596
▁two	-597
▁question	-598
▁everything	-599
▁No	-600
ious	-601
▁ever	-602
▁id	-603
▁put	-604
▁When	-605
▁fl	-606
▁buy	-607
▁ear	-608
▁saw	-609
▁why	-610
akes	-611
▁start	-612
read	-613
orry	-614
▁hear	-615
▁acc	-616
▁door	-617
ated	-618
▁busy	-619
irst	-620
▁next	-621
▁hope	-622
▁res	-623
▁hat	-624
▁sur	-625
ile	-626
ten	-627
▁la	-628
mer	-629
▁gir	-630
▁late	-631
▁Would	-632
▁away	-633
▁wrong	-634
▁St	-635
▁walk	-636
▁dec	-637
▁fun	-638
▁sleep	-639
▁adv	-640
▁cat	-641
ember	-642
▁teac	-643
▁show	-644
sw	-645
ich	-646
ult	-647
▁idea	-648
▁mat	-649
▁kind	-650
▁bo	-651
▁gr	-652
ence	-653
▁answ	-654
▁wasn	-655
▁couldn	-656
▁keep	-657
▁first	-658
ught	-659
ance	-660
▁bad	-661
▁being	-662
▁teacher	-663
▁mind	-664
▁remember	-665
▁anyone	-666
ment	-667
oston	-668
▁supp	-669
▁turn	-670
▁years	-671
▁Boston	-672
▁sorry	-673
▁str	-674
▁gave	-675
▁nothing	-676
erest	-677
▁soon	-678
ngl	-679
ory	-680
▁att	-681
▁bed	-682
▁Engl	-683
▁list	-684
▁rain	-685
▁mar	-686
▁Your	-687
▁stud	-688
▁mother	-689
▁use	-690
▁may	-691
▁open	-692
▁without	-693
ci	-694
▁mor	-695
▁pers	-696
▁fam	-697
▁knew	-698
▁took	-699
▁came	-700
▁things	-701
▁watch	-702
▁His	-703
▁life	-704
▁used	-705
▁their	-706
▁dri	-707
▁morning	-708
▁yet	-709
▁heard	-710
▁these	-711
ily	-712
ted	-713
▁big	-714
▁interest	-715
ready	-716
▁found	-717
▁already	-718
og	-719
▁lost	-720
▁name	-721
▁tired	-722
▁mist	-723
▁ph	-724
▁looking	-725
ok	-726
▁che	-727
▁seen	-728
▁children	-729
▁boy	-730
ident	-731
▁best	-732
▁lear	-733
▁English	-734
apan	-735
▁same	-736
▁Japan	-737
▁May	-738
▁Could	-739
▁water	-740
oth	-741
are	-742
▁cle	-743
ign	-744
raid	-745
▁lik	-746
▁afraid	-747
▁sho	-748
▁beg	-749
▁eas	-750
▁answer	-751
ull	-752
osed	-753
▁pol	-754
▁often	-755
ible	-756
igh	-757
pr	-758
ner	-759
▁fo	-760
▁ready	-761
el	-762
▁word	-763
▁haven	-764
▁train	-765
▁All	-766
▁ten	-767
▁wish	-768
▁yourself	-769
rents	-770
▁mean	-771
▁party	-772
gry	-773
ail	-774
▁cold	-775
orm	-776
▁per	-777
ister	-778
▁miss	-779
▁pret	-780
▁young	-781
▁person	-782
uck	-783
▁el	-784
▁study	-785
▁brother	-786
ife	-787
ince	-788
▁stop	-789
▁run	-790
lain	-791
▁sing	-792
▁count	-793
▁myself	-794
▁act	-795
▁min	-796
▁pain	-797
▁war	-798
▁parents	-799
aking	-800
▁great	-801
▁rep	-802
▁cont	-803
▁might	-804
cle	-805
ian	-806
ished	-807
▁talking	-808
oke	-809
▁else	-810
▁learn	-811
▁while	-812
▁des	-813
▁student	-814
gg	-815
ause	-816
▁hot	-817
▁girl	-818
▁around	-819
▁matter	-820
ip	-821
ually	-822
▁sec	-823
▁swim	-824
▁bought	-825
uth	-826
ited	-827
ream	-828
ud	-829
hes	-830
▁pay	-831
▁even	-832
▁glad	-833
▁sister	-834
aut	-835
▁Be	-836
▁hour	-837
▁rest	-838
oin	-839
▁beaut	-840
▁bre	-841
▁bro	-842
▁few	-843
▁met	-844
▁letter	-845
▁surpr	-846
▁early	-847
▁another	-848
▁prom	-849
ock	-850
▁wants	-851
▁listen	-852
fic	-853
▁food	-854
▁married	-855
▁nice	-856
ctor	-857
inner	-858
iful	-859
vor	-860
▁cha	-861
▁own	-862
▁looks	-863
▁getting	-864
any	-865
▁true	-866
▁place	-867
▁hun	-868
▁minut	-869
ond	-870
ered	-871
▁sha	-872
▁hurt	-873
▁R	-874
ork	-875
▁Ch	-876
▁rec	-877
▁pict	-878
▁picture	-879
most	-880
▁inv	-881
▁wind	-882
joy	-883
ced	-884
ize	-885
▁far	-886
▁expect	-887
▁mov	-888
▁ser	-889
▁wouldn	-890
▁beautiful	-891
les	-892
ared	-893
▁knows	-894
▁because	-895
▁such	-896
pped	-897
side	-898
▁Some	-899
▁break	-900
▁doctor	-901
▁cr	-902
ever	-903
▁sit	-904
ffee	-905
ix	-906
▁tried	-907
▁wonder	-908
▁vis	-909
▁able	-910
▁meeting	-911
▁arri	-912
▁coffee	-913
▁aren	-914
▁forg	-915
ath	-916
ret	-917
▁enjoy	-918
ny	-919
night	-920
▁diffic	-921
ater	-922
▁days	-923
▁once	-924
▁truth	-925
oon	-926
feren	-927
▁coming	-928
▁ey	-929
more	-930
be	-931
ars	-932
▁anymore	-933
▁careful	-934
▁K	-935
ese	-936
▁sl	-937
▁books	-938
▁almost	-939
unch	-940
ert	-941
▁dinner	-942
oud	-943
▁Tell	-944
▁Everyone	-945
▁win	-946
▁mine	-947
ens	-948
ons	-949
▁hate	-950
▁pass	-951
gether	-952
▁write	-953
▁change	-954
used	-955
▁sk	-956
▁news	-957
▁waiting	-958
▁together	-959
cc	-960
▁kid	-961
▁real	-962
▁family	-963
▁em	-964
▁seems	-965
▁pretty	-966
▁tow	-967
▁trust	-968
▁kill	-969
▁import	-970
ank	-971
▁sn	-972
anger	-973
▁easy	-974
▁likes	-975
▁spend	-976
▁differen	-977
lt	-978
eep	-979
▁Does	-980
▁Give	-981
▁gone	-982
▁phone	-983
▁forget	-984
▁shouldn	-985
▁1	-986
▁felt	-987
▁sick	-988
aught	-989
▁tonight	-990
▁world	-991
▁Take	-992
▁accident	-993
▁mon	-994
▁died	-995
▁Will	-996
ressed	-997
▁someone	-998
ured	-999
▁each	-1000
▁light	-1001
▁difficult	-1002
llow	-1003
▁end	-1004
▁key	-1005
▁disc	-1006
▁both	-1007
▁rel	-1008
▁trying	-1009
▁bir	-1010
▁drive	-1011
▁lunch	-1012
sent	-1013
▁bit	-1014
▁wife	-1015
▁working	-1016
ssible	-1017
led	-1018
med	-1019
▁bor	-1020
▁In	-1021
▁cook	-1022
▁longer	-1023
ged	-1024
per	-1025
▁Get	-1026
▁small	-1027
ided	-1028
▁sound	-1029
icy	-1030
▁quite	-1031
▁window	-1032
ors	-1033
fect	-1034
▁guy	-1035
▁mom	-1036
▁looked	-1037
▁station	-1038
▁supposed	-1039
▁cut	-1040
▁sat	-1041
▁finished	-1042
▁ap	-1043
▁police	-1044
old	-1045
aper	-1046
▁wom	-1047
▁stand	-1048
▁questions	-1049
ason	-1050
ision	-1051
▁class	-1052
▁makes	-1053
▁started	-1054
▁important	-1055
ia	-1056
▁wear	-1057
▁surprised	-1058
ug	-1059
app	-1060
cept	-1061
▁unt	-1062
▁fire	-1063
▁most	-1064
▁movie	-1065
ans	-1066
hank	-1067
iness	-1068
ition	-1069
▁favor	-1070
▁di	-1071
▁luck	-1072
▁story	-1073
ord	-1074
▁As	-1075
▁son	-1076
▁exact	-1077
▁danger	-1078
▁feeling	-1079
▁Thank	-1080
work	-1081
▁those	-1082
ub	-1083
▁Go	-1084
▁fr	-1085
▁Nob	-1086
▁cho	-1087
▁resp	-1088
ned	-1089
less	-1090
▁sto	-1091
▁dream	-1092
▁since	-1093
zy	-1094
where	-1095
▁Nobody	-1096
▁follow	-1097
▁Come	-1098
▁office	-1099
ient	-1100
ating	-1101
▁Stop	-1102
▁near	-1103
▁trou	-1104
▁visit	-1105
▁forgot	-1106
▁himself	-1107
▁mistake	-1108
▁reading	-1109
▁weather	-1110
een	-1111
▁fast	-1112
▁park	-1113
ably	-1114
▁mus	-1115
lic	-1116
▁angry	-1117
▁month	-1118
▁conc	-1119
pe	-1120
▁fig	-1121
▁until	-1122
▁anybody	-1123
▁song	-1124
▁called	-1125
ely	-1126
▁On	-1127
▁air	-1128
▁high	-1129
▁ref	-1130
meric	-1131
▁free	-1132
▁yours	-1133
▁everyone	-1134
▁num	-1135
▁agree	-1136
▁Americ	-1137
▁serious	-1138
ote	-1139
▁Our	-1140
▁add	-1141
▁times	-1142
▁exactly	-1143
upid	-1144
▁ent	-1145
▁exc	-1146
▁tri	-1147
▁Just	-1148
▁guess	-1149
ier	-1150
ves	-1151
noon	-1152
▁eyes	-1153
▁stupid	-1154
▁turned	-1155
ense	-1156
▁bicy	-1157
▁prob	-1158
▁afternoon	-1159
angu	-1160
▁hair	-1161
man	-1162
▁dep	-1163
▁kiss	-1164
▁hours	-1165
alth	-1166
▁music	-1167
▁fell	-1168
▁hands	-1169
▁playing	-1170
sh	-1171
▁broke	-1172
▁disapp	-1173
▁bicycle	-1174
▁trouble	-1175
olog	-1176
▁sol	-1177
▁head	-1178
▁appre	-1179
▁advice	-1180
▁minutes	-1181
▁ago	-1182
▁inc	-1183
▁tall	-1184
▁langu	-1185
▁probably	-1186
ple	-1187
▁cons	-1188
▁says	-1189
▁close	-1190
▁having	-1191
▁appreci	-1192
▁decided	-1193
▁explain	-1194
▁interested	-1195
ax	-1196
ime	-1197
▁conf	-1198
▁clean	-1199
▁eating	-1200
▁country	-1201
▁thinking	-1202
▁"	-1203
▁cry	-1204
▁Sh	-1205
▁lives	-1206
▁caught	-1207
▁reason	-1208
als	-1209
▁Her	-1210
▁ret	-1211
▁safe	-1212
▁law	-1213
uss	-1214
▁game	-1215
▁sent	-1216
ention	-1217
ib	-1218
▁ob	-1219
▁town	-1220
▁Which	-1221
▁worry	-1222
▁students	-1223
▁interesting	-1224
▁box	-1225
▁table	-1226
▁comm	-1227
▁Japanese	-1228
pit	-1229
ject	-1230
reet	-1231
▁dead	-1232
▁moment	-1233
▁usually	-1234
ph	-1235
air	-1236
let	-1237
▁thr	-1238
▁advised	-1239
int	-1240
▁ran	-1241
▁daught	-1242
▁reg	-1243
▁grow	-1244
▁against	-1245
ized	-1246
▁Look	-1247
▁number	-1248
▁arrived	-1249
mmer	-1250
▁allow	-1251
▁different	-1252
00	-1253
vel	-1254
irty	-1255
ouch	-1256
▁red	-1257
▁cost	-1258
▁then	-1259
▁glass	-1260
▁proud	-1261
▁homework	-1262
▁fore	-1263
▁quick	-1264
▁weren	-1265
▁through	-1266
▁lar	-1267
oking	-1268
▁tele	-1269
▁These	-1270
▁appreciate	-1271
▁cra	-1272
pital	-1273
▁possible	-1274
▁later	-1275
unk	-1276
▁snow	-1277
▁strong	-1278
ither	-1279
▁five	-1280
▁secret	-1281
▁Everybody	-1282
▁ter	-1283
▁kept	-1284
br	-1285
vent	-1286
▁inf	-1287
▁full	-1288
▁catch	-1289
▁living	-1290
ison	-1291
▁born	-1292
▁begin	-1293
▁needs	-1294
ger	-1295
ange	-1296
ward	-1297
▁trip	-1298
ross	-1299
▁Not	-1300
▁finish	-1301
▁business	-1302
ower	-1303
▁die	-1304
ately	-1305
▁doll	-1306
ched	-1307
hind	-1308
▁dress	-1309
▁trave	-1310
▁saying	-1311
aby	-1312
enc	-1313
▁mil	-1314
▁Keep	-1315
▁exam	-1316
▁behind	-1317
▁promise	-1318
ical	-1319
▁age	-1320
▁health	-1321
▁hungry	-1322
▁outside	-1323
▁perfect	-1324
▁daughter	-1325
▁sun	-1326
▁girlf	-1327
▁older	-1328
pl	-1329
▁OK	-1330
ions	-1331
ative	-1332
▁baby	-1333
▁coll	-1334
▁mess	-1335
▁hurry	-1336
▁complain	-1337
▁girlfriend	-1338
."	-1339
te	-1340
ustr	-1341
▁wine	-1342
▁writ	-1343
▁clot	-1344
▁accept	-1345
▁making	-1346
fer	-1347
uter	-1348
▁ele	-1349
ience	-1350
▁team	-1351
▁stayed	-1352
du	-1353
iet	-1354
ont	-1355
aken	-1356
▁lie	-1357
▁tree	-1358
▁become	-1359
▁summer	-1360
▁present	-1361
▁favorite	-1362
dd	-1363
ying	-1364
▁fail	-1365
▁suit	-1366
▁chance	-1367
erv	-1368
irt	-1369
umb	-1370
imes	-1371
▁birth	-1372
▁eaten	-1373
▁works	-1374
▁disappoin	-1375
▁paid	-1376
▁needed	-1377
▁taking	-1378
not	-1379
ugh	-1380
ming	-1381
vers	-1382
▁set	-1383
ended	-1384
▁quit	-1385
▁sugg	-1386
▁laugh	-1387
▁shoes	-1388
▁computer	-1389
fast	-1390
▁arm	-1391
▁art	-1392
▁city	-1393
▁funny	-1394
▁apolog	-1395
▁cam	-1396
▁pri	-1397
▁dark	-1398
▁crazy	-1399
▁order	-1400
▁point	-1401
▁short	-1402
▁thank	-1403
▁whole	-1404
▁discuss	-1405
▁decision	-1406
az	-1407
cl	-1408
bed	-1409
▁Was	-1410
▁lose	-1411
▁company	-1412
▁face	-1413
▁build	-1414
aur	-1415
ual	-1416
cess	-1417
▁tea	-1418
▁deal	-1419
▁woman	-1420
rew	-1421
ump	-1422
ates	-1423
▁hor	-1424
▁hos	-1425
▁inter	-1426
▁Mon	-1427
▁ill	-1428
▁fall	-1429
ertain	-1430
▁Maybe	-1431
▁changed	-1432
▁quickly	-1433
▁breakfast	-1434
▁bag	-1435
▁leg	-1436
▁med	-1437
▁fish	-1438
▁bring	-1439
▁weekend	-1440
set	-1441
ush	-1442
ustral	-1443
▁store	-1444
▁asleep	-1445
▁cannot	-1446
▁Austral	-1447
▁invited	-1448
ike	-1449
ighb	-1450
▁ate	-1451
▁gun	-1452
▁ins	-1453
▁comes	-1454
▁large	-1455
▁paper	-1456
▁neighb	-1457
▁clothes	-1458
leas	-1459
▁char	-1460
▁seat	-1461
▁hotel	-1462
▁lived	-1463
▁quiet	-1464
▁touch	-1465
▁hospital	-1466
▁adm	-1467
▁ass	-1468
▁pat	-1469
icket	-1470
aurant	-1471
iction	-1472
▁wearing	-1473
▁worried	-1474
▁watching	-1475
▁restaurant	-1476
▁cup	-1477
▁pie	-1478
▁spe	-1479
itten	-1480
▁dist	-1481
▁pick	-1482
▁sign	-1483
ensive	-1484
uation	-1485
▁check	-1486
▁heart	-1487
▁Australia	-1488
▁exper	-1489
▁handle	-1490
▁killed	-1491
▁complet	-1492
ird	-1493
ular	-1494
▁Sun	-1495
▁fix	-1496
▁sal	-1497
▁wrote	-1498
▁choice	-1499
ken	-1500
nis	-1501
ness	-1502
pping	-1503
▁goes	-1504
▁rich	-1505
▁takes	-1506
▁Sunday	-1507
▁Af	-1508
port	-1509
room	-1510
▁hid	-1511
▁prep	-1512
▁began	-1513
▁drunk	-1514
▁fight	-1515
▁borrow	-1516
▁tennis	-1517
▁language	-1518
▁At	-1519
ring	-1520
▁six	-1521
▁spent	-1522
▁report	-1523
▁scared	-1524
▁street	-1525
▁situation	-1526
ling	-1527
▁dro	-1528
▁swe	-1529
▁boss	-1530
▁clear	-1531
▁lucky	-1532
▁worth	-1533
▁Monday	-1534
▁others	-1535
▁stopped	-1536
▁everybody	-1537
ash	-1538
eal	-1539
▁hit	-1540
▁grand	-1541
▁upset	-1542
▁which	-1543
▁worked	-1544
ps	-1545
▁To	-1546
▁beer	-1547
▁ext	-1548
▁lock	-1549
▁happening	-1550
ott	-1551
ceed	-1552
ider	-1553
▁cor	-1554
▁ris	-1555
▁Many	-1556
▁cake	-1557
▁milk	-1558
▁death	-1559
▁figured	-1560
▁expensive	-1561
▁del	-1562
▁mem	-1563
▁Here	-1564
▁kids	-1565
▁Somet	-1566
▁liked	-1567
▁teach	-1568
▁diction	-1569
▁speaking	-1570
ead	-1571
ract	-1572
ully	-1573
▁men	-1574
▁gets	-1575
▁pleas	-1576
▁trans	-1577
▁rather	-1578
▁ticket	-1579
▁brought	-1580
▁certain	-1581
▁happens	-1582
▁building	-1583
fied	-1584
▁One	-1585
▁det	-1586
▁whe	-1587
▁gard	-1588
▁closed	-1589
▁running	-1590
▁strange	-1591
▁suggest	-1592
▁studying	-1593
▁coat	-1594
▁conv	-1595
▁cour	-1596
▁inform	-1597
▁prison	-1598
▁dangerous	-1599
▁disappointed	-1600
by	-1601
era	-1602
arth	-1603
▁wall	-1604
▁river	-1605
▁garden	-1606
▁minute	-1607
▁prefer	-1608
▁telling	-1609
▁birthday	-1610
▁mistakes	-1611
ball	-1612
fort	-1613
fully	-1614
▁pian	-1615
▁terri	-1616
▁helped	-1617
▁dictionary	-1618
▁Fr	-1619
cial	-1620
oose	-1621
▁vac	-1622
▁slow	-1623
▁plane	-1624
▁became	-1625
▁speaks	-1626
▁Everything	-1627
bit	-1628
ding	-1629
▁hold	-1630
▁beach	-1631
▁expected	-1632
aged	-1633
▁sim	-1634
▁black	-1635
▁second	-1636
▁finally	-1637
▁smoking	-1638
airs	-1639
▁Try	-1640
▁its	-1641
clock	-1642
▁half	-1643
▁libr	-1644
▁along	-1645
▁smoke	-1646
▁words	-1647
▁return	-1648
▁forward	-1649
io	-1650
rist	-1651
ween	-1652
▁flow	-1653
▁inst	-1654
▁less	-1655
▁front	-1656
▁smell	-1657
▁seeing	-1658
▁walked	-1659
enty	-1660
aster	-1661
ility	-1662
▁case	-1663
▁move	-1664
▁test	-1665
vening	-1666
▁earth	-1667
▁loves	-1668
▁sense	-1669
▁famous	-1670
ces	-1671
ove	-1672
reed	-1673
▁cop	-1674
▁imag	-1675
▁join	-1676
▁least	-1677
▁offer	-1678
▁Christ	-1679
▁missed	-1680
▁allowed	-1681
▁evening	-1682
▁library	-1683
av	-1684
ules	-1685
▁Stay	-1686
ations	-1687
itting	-1688
▁known	-1689
▁Thanks	-1690
oc	-1691
ift	-1692
ages	-1693
ries	-1694
▁between	-1695
▁es	-1696
band	-1697
▁dou	-1698
phone	-1699
uring	-1700
▁Chin	-1701
▁road	-1702
▁satis	-1703
▁necess	-1704
▁written	-1705
pect	-1706
▁fut	-1707
onest	-1708
▁treat	-1709
▁broken	-1710
▁crying	-1711
▁thirty	-1712
▁dollars	-1713
▁problems	-1714
▁attention	-1715
ics	-1716
▁cou	-1717
ccess	-1718
▁Aren	-1719
▁expl	-1720
usband	-1721
▁novel	-1722
▁apologize	-1723
▁flo	-1724
▁rid	-1725
▁suc	-1726
▁hasn	-1727
▁sell	-1728
ination	-1729
▁leaving	-1730
▁succeed	-1731
▁somewhere	-1732
rect	-1733
▁sad	-1734
▁dogs	-1735
▁sold	-1736
▁weight	-1737
▁address	-1738
▁husband	-1739
▁drinking	-1740
mas	-1741
right	-1742
▁fine	-1743
▁prot	-1744
▁shot	-1745
▁piano	-1746
ountain	-1747
▁future	-1748
▁talked	-1749
ric	-1750
uit	-1751
▁Am	-1752
▁ow	-1753
ffic	-1754
▁Put	-1755
▁abs	-1756
▁col	-1757
▁pun	-1758
▁bill	-1759
▁nerv	-1760
▁risk	-1761
▁side	-1762
▁After	-1763
▁deser	-1764
▁nervous	-1765
▁success	-1766
▁sleeping	-1767
▁Christmas	-1768
ored	-1769
▁Now	-1770
▁rad	-1771
▁sub	-1772
▁tax	-1773
▁fool	-1774
▁opin	-1775
▁rules	-1776
▁camera	-1777
▁opened	-1778
▁flowers	-1779
▁completely	-1780
aw	-1781
iv	-1782
ule	-1783
▁aff	-1784
▁esc	-1785
▁tem	-1786
▁bath	-1787
▁foot	-1788
▁chair	-1789
▁dance	-1790
▁medic	-1791
▁solve	-1792
▁People	-1793
▁Someone	-1794
▁writing	-1795
▁swimming	-1796
▁av	-1797
head	-1798
▁sil	-1799
▁Were	-1800
▁ship	-1801
rem	-1802
ames	-1803
lves	-1804
road	-1805
▁opp	-1806
ction	-1807
▁guit	-1808
▁heav	-1809
▁poor	-1810
ishing	-1811
▁respons	-1812
▁consider	-1813
0.	-1814
oky	-1815
medi	-1816
rees	-1817
▁bott	-1818
▁date	-1819
▁spee	-1820
▁taken	-1821
▁immedi	-1822
▁learned	-1823
▁actually	-1824
▁listening	-1825
▁bird	-1826
friend	-1827
▁noise	-1828
▁bother	-1829
▁either	-1830
▁painting	-1831
▁necessary	-1832
oh	-1833
okyo	-1834
▁fat	-1835
▁sus	-1836
dered	-1837
olved	-1838
▁phot	-1839
▁Tokyo	-1840
▁uncle	-1841
atur	-1842
ined	-1843
rell	-1844
▁Any	-1845
▁umb	-1846
▁alive	-1847
▁blame	-1848
▁guitar	-1849
▁speech	-1850
▁suppose	-1851
▁umbrell	-1852
▁whether	-1853
▁mountain	-1854
raw	-1855
ude	-1856
▁bank	-1857
▁newsp	-1858
▁radio	-1859
▁waste	-1860
▁during	-1861
▁honest	-1862
▁Nothing	-1863
▁vacation	-1864
▁information	-1865
ial	-1866
▁ty	-1867
outh	-1868
▁arg	-1869
▁pop	-1870
▁clim	-1871
▁keys	-1872
▁mach	-1873
▁breat	-1874
▁white	-1875
▁travel	-1876
▁promised	-1877
▁somebody	-1878
ton	-1879
▁gen	-1880
▁anim	-1881
▁desk	-1882
▁doub	-1883
▁lawy	-1884
▁perm	-1885
selves	-1886
▁appro	-1887
▁girls	-1888
▁opinion	-1889
ogn	-1890
come	-1891
ened	-1892
▁hum	-1893
▁ign	-1894
▁pen	-1895
▁tra	-1896
▁prop	-1897
▁rece	-1898
▁save	-1899
▁tast	-1900
▁warm	-1901
▁escap	-1902
▁floor	-1903
▁arrive	-1904
▁recogn	-1905
▁showed	-1906
▁sounds	-1907
▁transl	-1908
▁foreign	-1909
▁shopping	-1910
▁umbrella	-1911
dden	-1912
ature	-1913
ently	-1914
▁plans	-1915
▁sudden	-1916
▁glasses	-1917
▁raining	-1918
▁whatever	-1919
▁boyfriend	-1920
▁immediately	-1921
▁ce	-1922
ager	-1923
ived	-1924
ustom	-1925
▁horse	-1926
▁means	-1927
▁piece	-1928
▁power	-1929
▁arrest	-1930
▁pictures	-1931
▁pe	-1932
▁New	-1933
▁cal	-1934
▁owe	-1935
▁pub	-1936
▁beha	-1937
▁fair	-1938
▁guys	-1939
▁loved	-1940
▁women	-1941
▁abroad	-1942
▁American	-1943
▁medicine	-1944
▁prepared	-1945
▁Sp	-1946
▁sy	-1947
▁Ger	-1948
▁bar	-1949
▁card	-1950
▁given	-1951
▁smart	-1952
▁belong	-1953
▁willing	-1954
▁satisfied	-1955
way	-1956
land	-1957
▁earl	-1958
▁star	-1959
▁asking	-1960
▁regret	-1961
▁remain	-1962
▁thinks	-1963
▁dressed	-1964
▁involved	-1965
▁carefully	-1966
▁sometimes	-1967
oup	-1968
▁fre	-1969
▁deep	-1970
▁joke	-1971
▁requ	-1972
▁ride	-1973
▁shut	-1974
▁figure	-1975
▁lawyer	-1976
▁shower	-1977
▁machine	-1978
▁message	-1979
▁patient	-1980
▁respect	-1981
▁telephone	-1982
ne	-1983
ege	-1984
gan	-1985
▁ice	-1986
▁inj	-1987
▁mag	-1988
vious	-1989
▁meat	-1990
▁pres	-1991
▁ring	-1992
vision	-1993
▁Since	-1994
▁lying	-1995
▁spoke	-1996
▁storm	-1997
▁couple	-1998
▁college	-1999
▁correct	-2000
so	-2001
ade	-2002
gar	-2003
oned	-2004
▁tie	-2005
▁post	-2006
▁rent	-2007
▁send	-2008
▁apart	-2009
▁worse	-2010
▁agreed	-2011
▁contin	-2012
▁easily	-2013
▁America	-2014
▁driving	-2015
ets	-2016
ges	-2017
▁Ex	-2018
lept	-2019
▁mis	-2020
▁unl	-2021
▁boys	-2022
▁fact	-2023
▁surv	-2024
▁Those	-2025
▁ahead	-2026
▁color	-2027
▁weird	-2028
▁harder	-2029
▁special	-2030
▁impressed	-2031
ilt	-2032
rol	-2033
▁ra	-2034
dred	-2035
iday	-2036
ists	-2037
▁ann	-2038
▁Both	-2039
▁shop	-2040
▁apple	-2041
▁price	-2042
▁movies	-2043
▁neighbor	-2044
▁television	-2045
▁ve	-2046
▁vo	-2047
iled	-2048
▁bas	-2049
▁ind	-2050
iving	-2051
▁four	-2052
▁mail	-2053
▁Canad	-2054
▁heavy	-2055
▁twice	-2056
▁afford	-2057
▁depend	-2058
▁protect	-2059
▁terrible	-2060
▁dan	-2061
▁pur	-2062
ution	-2063
▁blue	-2064
▁lied	-2065
▁carry	-2066
▁younger	-2067
▁Something	-2068
ze	-2069
erg	-2070
ief	-2071
uri	-2072
▁ur	-2073
rodu	-2074
▁hol	-2075
▁jump	-2076
▁fault	-2077
▁shirt	-2078
▁across	-2079
▁likely	-2080
▁refused	-2081
arr	-2082
pty	-2083
ants	-2084
reen	-2085
▁eye	-2086
▁fit	-2087
▁ide	-2088
ortun	-2089
▁cute	-2090
▁lend	-2091
▁pull	-2092
▁Sorry	-2093
▁throw	-2094
▁attend	-2095
▁earlier	-2096
▁staying	-2097
▁traffic	-2098
▁feelings	-2099
cer	-2100
dle	-2101
erc	-2102
oof	-2103
ator	-2104
▁eng	-2105
▁ski	-2106
▁vol	-2107
iling	-2108
▁crow	-2109
▁past	-2110
▁priv	-2111
▁fired	-2112
▁share	-2113
ibility	-2114
▁absent	-2115
▁concer	-2116
▁decide	-2117
▁passed	-2118
▁waited	-2119
▁difference	-2120
▁ma	-2121
hood	-2122
orts	-2123
▁Lea	-2124
▁Show	-2125
▁cond	-2126
▁hang	-2127
stairs	-2128
▁cross	-2129
▁choose	-2130
▁cooking	-2131
▁wonderful	-2132
omp	-2133
rit	-2134
ices	-2135
▁emb	-2136
▁uni	-2137
lcome	-2138
▁Make	-2139
▁held	-2140
▁impo	-2141
▁line	-2142
idence	-2143
ission	-2144
▁organ	-2145
▁kissed	-2146
▁played	-2147
▁hundred	-2148
▁egg	-2149
arket	-2150
▁enem	-2151
▁lake	-2152
▁wake	-2153
▁moved	-2154
▁relax	-2155
▁slept	-2156
▁partic	-2157
▁enjoyed	-2158
▁introdu	-2159
▁experience	-2160
idge	-2161
ises	-2162
▁For	-2163
▁Isn	-2164
▁dem	-2165
▁fly	-2166
▁mid	-2167
▁top	-2168
alent	-2169
inced	-2170
▁Didn	-2171
▁empty	-2172
▁sight	-2173
▁appear	-2174
▁hardly	-2175
▁inside	-2176
▁anywhere	-2177
▁newspaper	-2178
▁impossible	-2179
eth	-2180
ins	-2181
aded	-2182
ayed	-2183
ults	-2184
▁cur	-2185
▁occ	-2186
itted	-2187
veral	-2188
▁Turn	-2189
▁boat	-2190
▁grad	-2191
▁wood	-2192
▁elect	-2193
▁ideas	-2194
▁meant	-2195
fortable	-2196
▁fishing	-2197
▁several	-2198
▁singing	-2199
▁surprise	-2200
itc	-2201
ughed	-2202
▁York	-2203
▁also	-2204
▁body	-2205
▁poss	-2206
▁Leave	-2207
▁Whose	-2208
▁built	-2209
▁weeks	-2210
▁driver	-2211
▁leaves	-2212
▁plenty	-2213
▁public	-2214
▁winter	-2215
▁laughed	-2216
▁painted	-2217
▁support	-2218
▁laughing	-2219
▁convinced	-2220
▁recognize	-2221
▁z	-2222
rup	-2223
▁An	-2224
▁den	-2225
▁sky	-2226
ument	-2227
▁Wait	-2228
▁base	-2229
▁lead	-2230
▁saved	-2231
▁stuff	-2232
▁bottle	-2233
▁remind	-2234
▁sooner	-2235
▁injured	-2236
ane	-2237
aked	-2238
iced	-2239
ached	-2240
istic	-2241
▁clos	-2242
▁gift	-2243
ousand	-2244
▁crowd	-2245
▁polit	-2246
▁button	-2247
▁failed	-2248
▁gotten	-2249
▁seemed	-2250
▁concert	-2251
▁herself	-2252
▁arrested	-2253
ef	-2254
uty	-2255
vern	-2256
ities	-2257
useum	-2258
▁cats	-2259
▁land	-2260
▁liar	-2261
▁loud	-2262
▁sand	-2263
arrass	-2264
edding	-2265
▁Bring	-2266
▁awake	-2267
▁drank	-2268
▁persu	-2269
▁suitc	-2270
▁Should	-2271
▁studied	-2272
▁followed	-2273
▁embarrass	-2274
ots	-2275
olen	-2276
▁bur	-2277
▁val	-2278
▁lone	-2279
▁eight	-2280
▁marry	-2281
▁mouth	-2282
▁super	-2283
▁trees	-2284
▁apples	-2285
▁stolen	-2286
▁taught	-2287
▁animals	-2288
▁control	-2289
▁wedding	-2290
▁condition	-2291
ugg	-2292
▁deb	-2293
acked	-2294
▁dire	-2295
▁hist	-2296
▁taxi	-2297
▁Today	-2298
▁paint	-2299
▁produ	-2300
▁seven	-2301
▁stole	-2302
▁govern	-2303
▁museum	-2304
▁polite	-2305
▁accused	-2306
▁calling	-2307
▁forgive	-2308
▁beginning	-2309
▁languages	-2310
▁seriously	-2311
oid	-2312
uro	-2313
▁Al	-2314
ards	-2315
atch	-2316
book	-2317
osal	-2318
vest	-2319
▁jud	-2320
▁tot	-2321
ering	-2322
▁feed	-2323
▁hadn	-2324
▁blood	-2325
▁divor	-2326
▁doubt	-2327
▁feels	-2328
▁knife	-2329
▁ought	-2330
▁shock	-2331
▁boring	-2332
▁extrem	-2333
▁lonely	-2334
▁account	-2335
▁realize	-2336
▁walking	-2337
▁ir	-2338
cing	-2339
oken	-2340
▁Has	-2341
▁lad	-2342
ondon	-2343
▁ball	-2344
▁kitc	-2345
▁yell	-2346
father	-2347
▁sugar	-2348
▁talks	-2349
▁veget	-2350
▁London	-2351
▁detail	-2352
▁faster	-2353
▁sleepy	-2354
▁airport	-2355
▁deserve	-2356
▁kitchen	-2357
▁sitting	-2358
▁welcome	-2359
▁Canadian	-2360
cri	-2361
ery	-2362
iew	-2363
iol	-2364
ohn	-2365
▁Cl	-2366
ging	-2367
oint	-2368
olut	-2369
ploy	-2370
time	-2371
urry	-2372
▁los	-2373
illed	-2374
▁Even	-2375
▁John	-2376
▁Most	-2377
▁amaz	-2378
▁duty	-2379
▁pair	-2380
▁blind	-2381
▁plays	-2382
▁press	-2383
▁voice	-2384
▁acting	-2385
▁months	-2386
▁Chinese	-2387
▁history	-2388
▁project	-2389
▁personal	-2390
▁planning	-2391
▁suddenly	-2392
▁grandfather	-2393
con	-2394
sit	-2395
▁opt	-2396
▁rob	-2397
eared	-2398
encil	-2399
hamed	-2400
▁None	-2401
▁jeal	-2402
▁prog	-2403
▁admit	-2404
▁aware	-2405
▁stood	-2406
▁ashamed	-2407
▁jealous	-2408
▁pleased	-2409
▁opportun	-2410
de	-2411
ior	-2412
ued	-2413
▁So	-2414
▁ed	-2415
ency	-2416
ines	-2417
▁Ask	-2418
▁Par	-2419
▁gar	-2420
▁sea	-2421
arely	-2422
ushed	-2423
▁dest	-2424
▁draw	-2425
▁fear	-2426
▁hide	-2427
▁meal	-2428
▁enemy	-2429
▁impro	-2430
▁breath	-2431
▁drinks	-2432
▁hiding	-2433
▁nobody	-2434
▁pencil	-2435
▁though	-2436
▁attract	-2437
▁helping	-2438
▁ordered	-2439
mp	-2440
col	-2441
rab	-2442
▁Ne	-2443
ctob	-2444
ires	-2445
tern	-2446
▁inn	-2447
▁norm	-2448
▁vill	-2449
ctober	-2450
ounded	-2451
raight	-2452
urious	-2453
▁Hurry	-2454
▁famil	-2455
▁hates	-2456
▁rains	-2457
▁sched	-2458
▁sweet	-2459
osition	-2460
▁France	-2461
▁charge	-2462
▁native	-2463
▁warned	-2464
▁October	-2465
▁absolut	-2466
▁popular	-2467
▁baseball	-2468
▁sentence	-2469
▁thousand	-2470
▁certainly	-2471
▁extremely	-2472
▁government	-2473
▁complaining	-2474
sy	-2475
oun	-2476
ror	-2477
une	-2478
▁ev	-2479
acks	-2480
▁bat	-2481
▁def	-2482
▁Call	-2483
▁bike	-2484
▁drop	-2485
▁eats	-2486
▁fing	-2487
▁form	-2488
▁mill	-2489
▁viol	-2490
▁cance	-2491
▁dirty	-2492
▁fruit	-2493
▁stuck	-2494
▁teeth	-2495
▁buying	-2496
▁slowly	-2497
▁missing	-2498
▁proposal	-2499
▁straight	-2500
ru	-2501
ppy	-2502
ilar	-2503
ilty	-2504
▁flu	-2505
▁web	-2506
arter	-2507
▁club	-2508
▁cool	-2509
▁Paris	-2510
▁innoc	-2511
▁stick	-2512
▁bridge	-2513
▁giving	-2514
▁guilty	-2515
▁lights	-2516
▁result	-2517
▁prevent	-2518
▁learning	-2519
▁explained	-2520
▁neighbors	-2521
ex	-2522
ys	-2523
rap	-2524
ific	-2525
urch	-2526
▁fur	-2527
▁unc	-2528
acket	-2529
astic	-2530
usted	-2531
▁eggs	-2532
▁grew	-2533
▁step	-2534
▁Never	-2535
▁artic	-2536
▁cried	-2537
▁fresh	-2538
▁gener	-2539
▁magaz	-2540
▁peace	-2541
▁reach	-2542
▁volun	-2543
▁course	-2544
▁custom	-2545
▁scream	-2546
▁obvious	-2547
▁brothers	-2548
▁received	-2549
iar	-2550
omm	-2551
ume	-2552
bers	-2553
▁God	-2554
▁map	-2555
▁urg	-2556
ables	-2557
▁calm	-2558
▁feet	-2559
▁tight	-2560
▁church	-2561
▁demand	-2562
▁explan	-2563
▁fright	-2564
ointment	-2565
▁instead	-2566
▁apartment	-2567
▁permission	-2568
▁appointment	-2569
ats	-2570
ram	-2571
uge	-2572
▁Tw	-2573
omed	-2574
oted	-2575
rent	-2576
▁eff	-2577
▁fac	-2578
▁lic	-2579
▁mur	-2580
urope	-2581
▁cars	-2582
▁pock	-2583
▁sort	-2584
▁bread	-2585
▁cause	-2586
▁gradu	-2587
▁smile	-2588
▁tears	-2589
▁common	-2590
▁flight	-2591
▁locked	-2592
▁taller	-2593
▁visited	-2594
▁continue	-2595
▁listened	-2596
▁mistaken	-2597
▁standing	-2598
▁following	-2599
▁president	-2600
▁responsible	-2601
eg	-2602
od	-2603
den	-2604
uel	-2605
▁er	-2606
▁Help	-2607
▁Hold	-2608
▁Life	-2609
▁cell	-2610
▁wash	-2611
▁keeps	-2612
▁pract	-2613
▁Europe	-2614
▁German	-2615
▁entire	-2616
▁forced	-2617
▁invest	-2618
▁nearly	-2619
▁notice	-2620
▁simple	-2621
▁meaning	-2622
▁subject	-2623
▁Somebody	-2624
▁particular	-2625
▁comfortable	-2626
uts	-2627
ches	-2628
▁neg	-2629
▁squ	-2630
▁yen	-2631
nited	-2632
ories	-2633
▁lift	-2634
▁mood	-2635
▁prof	-2636
▁rope	-2637
▁stam	-2638
sidered	-2639
versity	-2640
▁normal	-2641
▁object	-2642
▁excited	-2643
▁healthy	-2644
▁manager	-2645
▁suspect	-2646
▁washing	-2647
▁schedule	-2648
▁countries	-2649
▁understood	-2650
ney	-2651
res	-2652
ccer	-2653
▁fed	-2654
▁gas	-2655
▁mot	-2656
icked	-2657
itive	-2658
▁beat	-2659
▁drow	-2660
▁China	-2661
▁crime	-2662
▁green	-2663
▁gunsh	-2664
▁shoot	-2665
▁except	-2666
▁singer	-2667
▁soccer	-2668
▁spoken	-2669
▁talent	-2670
▁bedroom	-2671
▁earthqu	-2672
▁impress	-2673
▁license	-2674
▁million	-2675
▁village	-2676
▁passport	-2677
▁realized	-2678
▁expecting	-2679
▁opportunity	-2680
line	-2681
nect	-2682
▁bri	-2683
▁cow	-2684
▁maj	-2685
▁mod	-2686
▁pot	-2687
ained	-2688
▁crit	-2689
▁soup	-2690
▁till	-2691
ighted	-2692
mother	-2693
▁annoy	-2694
▁event	-2695
▁judge	-2696
▁knock	-2697
▁caused	-2698
▁dreams	-2699
▁temper	-2700
▁article	-2701
▁imagine	-2702
▁private	-2703
▁reached	-2704
▁watched	-2705
▁returned	-2706
▁explanation	-2707
na	-2708
tle	-2709
yed	-2710
▁10	-2711
▁na	-2712
empt	-2713
ergy	-2714
ides	-2715
okes	-2716
▁dam	-2717
▁fil	-2718
▁idi	-2719
apers	-2720
▁Read	-2721
▁burn	-2722
▁disg	-2723
▁king	-2724
▁nine	-2725
▁purp	-2726
▁woke	-2727
▁Satur	-2728
▁among	-2729
▁bored	-2730
▁chess	-2731
▁chick	-2732
▁naive	-2733
▁songs	-2734
▁worst	-2735
▁States	-2736
▁chocol	-2737
▁energy	-2738
▁escape	-2739
▁excuse	-2740
▁silent	-2741
▁urgent	-2742
▁curious	-2743
▁entered	-2744
▁further	-2745
▁product	-2746
▁Saturday	-2747
▁confused	-2748
▁suitcase	-2749
▁Sometimes	-2750
▁depressed	-2751
▁considered	-2752
cks	-2753
▁Sw	-2754
▁pu	-2755
amed	-2756
iers	-2757
▁cap	-2758
▁loc	-2759
▁low	-2760
anted	-2761
▁exha	-2762
▁moon	-2763
▁nose	-2764
▁note	-2765
▁rang	-2766
▁rule	-2767
▁scen	-2768
▁skin	-2769
▁unha	-2770
ildren	-2771
▁avail	-2772
▁calls	-2773
▁clock	-2774
▁delic	-2775
▁habit	-2776
▁match	-2777
▁Mother	-2778
▁bright	-2779
▁depart	-2780
▁distur	-2781
▁island	-2782
▁memory	-2783
▁single	-2784
▁growing	-2785
▁holiday	-2786
▁managed	-2787
▁pretend	-2788
▁convince	-2789
▁interrup	-2790
▁starting	-2791
▁concerned	-2792
▁delighted	-2793
bo	-2794
ms	-2795
,00	-2796
ato	-2797
fet	-2798
ify	-2799
pen	-2800
ased	-2801
cuse	-2802
ibly	-2803
over	-2804
▁Hey	-2805
▁rum	-2806
ified	-2807
vered	-2808
▁cent	-2809
▁push	-2810
▁rude	-2811
▁susp	-2812
▁vote	-2813
▁wise	-2814
ording	-2815
▁enter	-2816
▁prove	-2817
▁stone	-2818
▁usual	-2819
▁Excuse	-2820
▁clever	-2821
▁spring	-2822
▁kidding	-2823
▁letters	-2824
▁mention	-2825
▁purpose	-2826
▁totally	-2827
▁answered	-2828
▁friendly	-2829
▁solution	-2830
▁forgotten	-2831
▁pretended	-2832
▁attractive	-2833
ury	-2834
▁Ky	-2835
▁Of	-2836
▁Sm	-2837
ache	-2838
aint	-2839
ship	-2840
stem	-2841
uing	-2842
▁amb	-2843
▁ble	-2844
▁dad	-2845
▁dev	-2846
▁equ	-2847
▁obe	-2848
hered	-2849
ieved	-2850
▁bark	-2851
▁bear	-2852
▁betr	-2853
▁lady	-2854
▁prin	-2855
▁rice	-2856
▁suff	-2857
▁weak	-2858
▁aband	-2859
▁cream	-2860
▁natur	-2861
▁photo	-2862
▁steal	-2863
▁middle	-2864
▁picked	-2865
▁skiing	-2866
▁wallet	-2867
▁collect	-2868
▁covered	-2869
▁noticed	-2870
▁results	-2871
▁windows	-2872
▁Children	-2873
ls	-2874
orn	-2875
ests	-2876
esome	-2877
iment	-2878
under	-2879
▁flat	-2880
▁fort	-2881
▁gold	-2882
▁huge	-2883
▁jour	-2884
▁pred	-2885
▁repe	-2886
▁sear	-2887
▁self	-2888
▁shar	-2889
▁tour	-2890
▁Watch	-2891
▁avoid	-2892
▁becom	-2893
▁occur	-2894
▁incred	-2895
▁jacket	-2896
▁amazing	-2897
▁attempt	-2898
▁carried	-2899
▁changes	-2900
▁hearing	-2901
▁matters	-2902
▁similar	-2903
▁sisters	-2904
▁sweater	-2905
▁fighting	-2906
▁innocent	-2907
▁shoulder	-2908
▁confident	-2909
▁absolutely	-2910
▁university	-2911
cy	-2912
nic	-2913
ute	-2914
gest	-2915
haps	-2916
▁Two	-2917
▁cab	-2918
▁nap	-2919
▁nur	-2920
▁shy	-2921
ences	-2922
fered	-2923
ional	-2924
irsty	-2925
velop	-2926
▁Well	-2927
▁auth	-2928
▁cred	-2929
▁golf	-2930
▁salt	-2931
▁type	-2932
▁behav	-2933
▁climb	-2934
▁dying	-2935
▁games	-2936
▁idiot	-2937
ational	-2938
underst	-2939
▁bigger	-2940
▁proper	-2941
▁recomm	-2942
▁twenty	-2943
▁connect	-2944
▁shocked	-2945
▁unhappy	-2946
▁accepted	-2947
▁believed	-2948
▁familiar	-2949
▁available	-2950
▁chocolate	-2951
▁vegetables	-2952
bye	-2953
gth	-2954
ony	-2955
oto	-2956
ases	-2957
cent	-2958
form	-2959
inal	-2960
ings	-2961
ldom	-2962
▁ach	-2963
▁ast	-2964
▁aud	-2965
▁hob	-2966
▁mir	-2967
▁unf	-2968
▁zoo	-2969
iting	-2970
▁acqu	-2971
▁drug	-2972
▁heat	-2973
▁lazy	-2974
▁legs	-2975
▁Kyoto	-2976
▁exerc	-2977
▁punct	-2978
▁taste	-2979
▁tells	-2980
▁thief	-2981
▁credit	-2982
▁seldom	-2983
▁system	-2984
▁threat	-2985
▁England	-2986
▁awesome	-2987
▁dropped	-2988
▁speaker	-2989
▁behavior	-2990
▁recently	-2991
▁Yesterday	-2992
▁earthquake	-2993
▁grandmother	-2994
hip	-2995
izz	-2996
iest	-2997
▁ben	-2998
▁lit	-2999
cious	-3000
ising	-3001
ments	-3002
▁Ital	-3003
▁bask	-3004
▁capt	-3005
▁cash	-3006
▁diet	-3007
▁harm	-3008
▁hero	-3009
▁poem	-3010
▁serv	-3011
▁spot	-3012
▁warn	-3013
▁weap	-3014
omeday	-3015
▁Their	-3016
▁cruel	-3017
▁diary	-3018
▁email	-3019
▁incre	-3020
▁names	-3021
▁assist	-3022
▁cancer	-3023
▁direct	-3024
▁employ	-3025
▁manage	-3026
▁moving	-3027
▁theory	-3028
▁escaped	-3029
▁tickets	-3030
▁magazine	-3031
▁punished	-3032
▁soldiers	-3033
▁exhausted	-3034
▁organized	-3035
▁translate	-3036
ik	-3037
ns	-3038
uc	-3039
ung	-3040
▁ru	-3041
erve	-3042
uses	-3043
▁ban	-3044
▁par	-3045
ining	-3046
light	-3047
ority	-3048
▁Shut	-3049
▁cous	-3050
▁dent	-3051
▁pack	-3052
▁pool	-3053
▁text	-3054
▁vict	-3055
▁vide	-3056
▁view	-3057
antage	-3058
urance	-3059
▁brave	-3060
▁cards	-3061
▁ended	-3062
▁prize	-3063
▁sandw	-3064
▁Father	-3065
▁descri	-3066
▁dishes	-3067
▁engine	-3068
▁market	-3069
▁oldest	-3070
▁paying	-3071
▁washed	-3072
▁chicken	-3073
▁contact	-3074
▁convers	-3075
▁dancing	-3076
▁forever	-3077
▁punctual	-3078
▁advantage	-3079
▁policeman	-3080
▁frightened	-3081
▁embarrassed	-3082
acy	-3083
erm	-3084
rat	-3085
aces	-3086
entr	-3087
rite	-3088
ures	-3089
▁Per	-3090
▁See	-3091
▁due	-3092
▁lim	-3093
▁pic	-3094
conom	-3095
▁arms	-3096
▁emer	-3097
▁hire	-3098
▁lots	-3099
ainted	-3100
▁const	-3101
▁hired	-3102
▁horri	-3103
▁raise	-3104
▁reply	-3105
▁truck	-3106
ulation	-3107
▁filled	-3108
▁finger	-3109
▁losing	-3110
▁player	-3111
▁sports	-3112
▁unlike	-3113
▁trusted	-3114
▁distance	-3115
▁stranger	-3116
▁upstairs	-3117
▁Americans	-3118
▁misunderst	-3119
▁examination	-3120
▁possibility	-3121
▁responsibility	-3122
ole	-3123
rog	-3124
itch	-3125
ulty	-3126
▁Acc	-3127
▁cig	-3128
▁fle	-3129
▁lay	-3130
▁nea	-3131
▁obs	-3132
▁und	-3133
▁wet	-3134
ashed	-3135
hings	-3136
▁camp	-3137
▁dise	-3138
▁furn	-3139
▁roof	-3140
ashion	-3141
ateful	-3142
fortun	-3143
▁Close	-3144
▁cheer	-3145
▁foods	-3146
▁human	-3147
▁nurse	-3148
▁stren	-3149
▁tough	-3150
▁Things	-3151
▁easier	-3152
▁exchan	-3153
▁intend	-3154
▁tastes	-3155
▁answers	-3156
▁complic	-3157
▁dentist	-3158
▁goodbye	-3159
▁hurried	-3160
▁nearest	-3161
▁smarter	-3162
▁borrowed	-3163
▁enjoying	-3164
▁grateful	-3165
▁unlikely	-3166
▁insurance	-3167
▁suggested	-3168
▁downstairs	-3169
▁conversation	-3170
▁neighborhood	-3171
its	-3172
key	-3173
pri	-3174
,000	-3175
cell	-3176
hest	-3177
host	-3178
ives	-3179
lies	-3180
▁Ind	-3181
▁Rem	-3182
▁aut	-3183
▁cir	-3184
ellig	-3185
▁Open	-3186
▁bell	-3187
▁coin	-3188
▁copy	-3189
▁ears	-3190
▁hill	-3191
▁lies	-3192
▁pizz	-3193
overed	-3194
▁emerg	-3195
▁fixed	-3196
▁hesit	-3197
▁hobby	-3198
▁illeg	-3199
▁meals	-3200
▁spell	-3201
▁using	-3202
▁artist	-3203
▁butter	-3204
▁denied	-3205
▁determ	-3206
▁econom	-3207
▁excell	-3208
▁garage	-3209
▁picnic	-3210
▁useful	-3211
▁within	-3212
▁capital	-3213
▁cleaned	-3214
▁cookies	-3215
▁depends	-3216
▁thirsty	-3217
▁winning	-3218
▁Whatever	-3219
▁bathroom	-3220
▁divorced	-3221
▁traveled	-3222
▁happiness	-3223
▁introduce	-3224
▁traveling	-3225
▁difficulty	-3226
▁imagination	-3227
zz	-3228
coh	-3229
llo	-3230
rib	-3231
ses	-3232
▁ug	-3233
aret	-3234
llen	-3235
ones	-3236
raph	-3237
cohol	-3238
iture	-3239
▁Germ	-3240
▁Last	-3241
▁With	-3242
▁area	-3243
▁jail	-3244
▁loss	-3245
▁noon	-3246
▁nuts	-3247
▁obey	-3248
▁prov	-3249
▁stom	-3250
▁tend	-3251
▁cheap	-3252
▁ghost	-3253
▁group	-3254
▁model	-3255
▁basket	-3256
▁hoping	-3257
▁jumped	-3258
▁record	-3259
▁slight	-3260
▁smells	-3261
▁superm	-3262
▁express	-3263
▁natural	-3264
▁request	-3265
▁betrayed	-3266
▁concentr	-3267
▁electric	-3268
▁intellig	-3269
▁remained	-3270
▁whenever	-3271
▁abandoned	-3272
▁delicious	-3273
▁emergency	-3274
▁excellent	-3275
▁ourselves	-3276
▁persuaded	-3277
▁themselves	-3278
▁complicated	-3279
▁temperature	-3280
ec	-3281
ler	-3282
oti	-3283
ows	-3284
tic	-3285
zen	-3286
▁ef	-3287
▁Day	-3288
▁psy	-3289
orter	-3290
▁Hand	-3291
▁cast	-3292
▁cops	-3293
▁desp	-3294
▁gent	-3295
▁page	-3296
▁race	-3297
▁size	-3298
ically	-3299
romise	-3300
▁Write	-3301
▁apply	-3302
▁cloud	-3303
▁disag	-3304
▁fever	-3305
▁jokes	-3306
▁shape	-3307
▁speed	-3308
▁video	-3309
▁woods	-3310
bitious	-3311
itation	-3312
▁Friday	-3313
▁barely	-3314
▁commun	-3315
▁compet	-3316
▁critic	-3317
▁explos	-3318
▁joking	-3319
▁murder	-3320
▁pocket	-3321
▁rained	-3322
▁smiled	-3323
▁spread	-3324
▁ability	-3325
▁courage	-3326
▁example	-3327
▁failure	-3328
▁percent	-3329
▁retired	-3330
▁volunte	-3331
▁exercise	-3332
▁offended	-3333
▁position	-3334
▁teaching	-3335
▁childhood	-3336
▁furniture	-3337
▁perfectly	-3338
▁recommend	-3339
▁succeeded	-3340
▁introduced	-3341
▁supermarket	-3342
fa	-3343
sc	-3344
amp	-3345
arm	-3346
mat	-3347
par	-3348
ues	-3349
uly	-3350
▁Pl	-3351
▁hy	-3352
ains	-3353
ians	-3354
icer	-3355
orth	-3356
osen	-3357
ruct	-3358
▁Sha	-3359
▁aim	-3360
▁bes	-3361
▁cre	-3362
▁tou	-3363
icted	-3364
▁adop	-3365
▁brow	-3366
▁dish	-3367
▁rely	-3368
▁repl	-3369
▁sens	-3370
▁sofa	-3371
▁soft	-3372
▁suic	-3373
▁ugly	-3374
perate	-3375
▁birds	-3376
▁grass	-3377
▁pizza	-3378
▁rumor	-3379
▁scene	-3380
▁sharp	-3381
▁third	-3382
▁wears	-3383
▁cousin	-3384
▁dating	-3385
▁effect	-3386
▁fairly	-3387
▁gentle	-3388
▁highly	-3389
▁ignore	-3390
▁lately	-3391
▁refuse	-3392
▁remark	-3393
▁salary	-3394
▁spends	-3395
▁unless	-3396
▁gunshot	-3397
▁profess	-3398
▁program	-3399
▁staring	-3400
▁believes	-3401
▁practice	-3402
▁intention	-3403
▁discussion	-3404
mb	-3405
irm	-3406
ker	-3407
fety	-3408
lebr	-3409
tery	-3410
▁Few	-3411
▁hig	-3412
▁typ	-3413
atoes	-3414
ulous	-3415
▁Good	-3416
▁band	-3417
▁disl	-3418
▁hous	-3419
▁hung	-3420
▁none	-3421
▁pron	-3422
▁rock	-3423
▁scar	-3424
▁stri	-3425
▁badly	-3426
▁costs	-3427
▁couch	-3428
▁exist	-3429
▁greet	-3430
▁seats	-3431
▁space	-3432
▁towel	-3433
▁accomp	-3434
▁attack	-3435
▁celebr	-3436
▁chosen	-3437
▁damage	-3438
▁experi	-3439
▁guests	-3440
▁lovely	-3441
▁negoti	-3442
▁poison	-3443
▁season	-3444
▁solved	-3445
▁suspic	-3446
▁arguing	-3447
▁cigaret	-3448
▁clearly	-3449
▁details	-3450
▁disease	-3451
▁drowned	-3452
▁fashion	-3453
▁illegal	-3454
▁perform	-3455
▁treated	-3456
▁accustom	-3457
▁investig	-3458
▁occurred	-3459
▁persuade	-3460
▁pleasure	-3461
▁promises	-3462
▁strength	-3463
▁prisoners	-3464
▁complained	-3465
▁eventually	-3466
ees	-3467
▁Tr	-3468
irts	-3469
lect	-3470
ples	-3471
▁cla	-3472
▁env	-3473
▁fif	-3474
▁mel	-3475
▁odd	-3476
▁oil	-3477
▁ver	-3478
▁wis	-3479
ances	-3480
cient	-3481
iable	-3482
using	-3483
xious	-3484
▁cand	-3485
▁pity	-3486
▁puzz	-3487
▁runs	-3488
▁whis	-3489
▁acted	-3490
▁awful	-3491
▁coinc	-3492
▁doors	-3493
▁facts	-3494
▁hated	-3495
▁naked	-3496
▁postp	-3497
▁separ	-3498
▁trick	-3499
▁altern	-3500
▁anyway	-3501
▁applic	-3502
▁closer	-3503
▁drives	-3504
▁leader	-3505
▁prices	-3506
▁raised	-3507
▁served	-3508
▁stamps	-3509
▁yellow	-3510
▁Perhaps	-3511
▁alcohol	-3512
▁nowhere	-3513
▁someday	-3514
▁studies	-3515
▁football	-3516
▁headache	-3517
▁sandwich	-3518
▁teachers	-3519
▁prevented	-3520
▁wondering	-3521
▁accustomed	-3522
▁everywhere	-3523
to	-3524
men	-3525
nal	-3526
ron	-3527
unt	-3528
▁By	-3529
hand	-3530
phan	-3531
▁Eat	-3532
▁coo	-3533
▁fog	-3534
▁log	-3535
▁nor	-3536
▁ste	-3537
▁unb	-3538
ipped	-3539
ledge	-3540
olded	-3541
▁Once	-3542
▁bite	-3543
▁inse	-3544
▁main	-3545
▁pill	-3546
▁resc	-3547
▁rese	-3548
▁vase	-3549
▁above	-3550
▁airpl	-3551
▁burst	-3552
▁concl	-3553
▁relig	-3554
▁state	-3555
▁advise	-3556
▁affect	-3557
▁burned	-3558
▁destro	-3559
▁flower	-3560
▁master	-3561
▁member	-3562
▁orders	-3563
▁passen	-3564
▁scient	-3565
▁stairs	-3566
▁struck	-3567
▁unable	-3568
▁writer	-3569
▁Germany	-3570
▁Neither	-3571
▁appears	-3572
▁climbed	-3573
▁falling	-3574
▁members	-3575
▁relaxed	-3576
▁smaller	-3577
▁suicide	-3578
▁survive	-3579
▁becoming	-3580
▁complete	-3581
▁exciting	-3582
▁pleasant	-3583
▁stronger	-3584
▁According	-3585
▁explosion	-3586
▁graduated	-3587
▁alternative	-3588
gl	-3589
aka	-3590
amb	-3591
▁Os	-3592
gers	-3593
illy	-3594
lled	-3595
▁Cle	-3596
▁enc	-3597
▁yes	-3598
abbit	-3599
aired	-3600
ening	-3601
ounce	-3602
umped	-3603
▁Comp	-3604
▁From	-3605
▁educ	-3606
▁farm	-3607
▁fift	-3608
▁gate	-3609
▁goal	-3610
▁math	-3611
▁orig	-3612
▁sale	-3613
▁sour	-3614
▁stun	-3615
▁surf	-3616
▁teen	-3617
▁Osaka	-3618
▁assum	-3619
▁creat	-3620
▁extra	-3621
▁hurts	-3622
▁ignor	-3623
▁impat	-3624
▁mayor	-3625
▁proof	-3626
▁stars	-3627
▁stock	-3628
▁tempt	-3629
▁tooth	-3630
▁cancel	-3631
▁resign	-3632
▁search	-3633
▁anxious	-3634
▁foolish	-3635
▁holding	-3636
▁illness	-3637
▁neither	-3638
▁parties	-3639
▁respond	-3640
▁wasting	-3641
▁workers	-3642
▁audience	-3643
▁careless	-3644
▁entirely	-3645
▁repaired	-3646
▁spending	-3647
▁talented	-3648
▁interrupt	-3649
▁understanding	-3650
bb	-3651
me	-3652
ta	-3653
ask	-3654
ius	-3655
ails	-3656
ield	-3657
ngue	-3658
▁Bec	-3659
▁Che	-3660
▁War	-3661
▁doc	-3662
▁ess	-3663
▁iss	-3664
▁kil	-3665
▁tur	-3666
▁wit	-3667
cture	-3668
inite	-3669
ittee	-3670
▁file	-3671
▁loan	-3672
▁pale	-3673
▁qual	-3674
▁sang	-3675
▁wore	-3676
ential	-3677
▁actor	-3678
▁block	-3679
▁boxes	-3680
▁fence	-3681
▁gives	-3682
▁kinds	-3683
▁miles	-3684
▁plain	-3685
▁psych	-3686
▁rough	-3687
▁thirt	-3688
▁School	-3689
▁animal	-3690
▁fallen	-3691
▁handed	-3692
▁invent	-3693
▁lasted	-3694
▁photog	-3695
▁repair	-3696
▁robbed	-3697
▁safety	-3698
▁saving	-3699
▁strict	-3700
▁tongue	-3701
▁writes	-3702
▁advance	-3703
▁captain	-3704
▁challen	-3705
▁crossed	-3706
▁fifteen	-3707
▁improve	-3708
▁theater	-3709
▁approach	-3710
▁document	-3711
▁progress	-3712
▁ambitious	-3713
▁classroom	-3714
▁committee	-3715
▁impatient	-3716
▁obviously	-3717
fortunately	-3718
▁population	-3719
▁suggestion	-3720
▁coincidence	-3721
do	-3722
ata	-3723
che	-3724
har	-3725
ism	-3726
omb	-3727
ope	-3728
tes	-3729
▁Bl	-3730
▁Dr	-3731
▁Fo	-3732
izzy	-3733
ores	-3734
rets	-3735
ucky	-3736
▁bow	-3737
▁div	-3738
▁hug	-3739
▁rev	-3740
asons	-3741
asses	-3742
board	-3743
enced	-3744
idays	-3745
iring	-3746
oured	-3747
wards	-3748
▁Only	-3749
▁barg	-3750
▁crim	-3751
▁debt	-3752
▁deli	-3753
▁grab	-3754
▁laid	-3755
▁merc	-3756
▁myst	-3757
▁neck	-3758
▁oper	-3759
▁ours	-3760
▁phys	-3761
▁pond	-3762
▁upon	-3763
icated	-3764
▁Afric	-3765
▁Jacks	-3766
▁banan	-3767
▁bound	-3768
▁brown	-3769
▁dizzy	-3770
▁named	-3771
▁round	-3772
▁scare	-3773
▁threw	-3774
▁whose	-3775
▁allerg	-3776
▁castle	-3777
▁darker	-3778
▁deeply	-3779
▁effort	-3780
▁houses	-3781
▁wealth	-3782
▁Because	-3783
▁Sundays	-3784
▁belongs	-3785
▁cheated	-3786
▁checked	-3787
▁develop	-3788
▁efforts	-3789
▁journal	-3790
▁knowing	-3791
▁planned	-3792
▁stomach	-3793
▁stunned	-3794
▁teaches	-3795
▁touched	-3796
▁airplane	-3797
▁appeared	-3798
▁attacked	-3799
▁disagree	-3800
▁politics	-3801
▁reliable	-3802
▁relieved	-3803
▁stealing	-3804
▁experiment	-3805
▁impression	-3806
▁invitation	-3807
▁intelligent	-3808
apt	-3809
cul	-3810
eds	-3811
oll	-3812
umn	-3813
▁Gu	-3814
alse	-3815
▁Say	-3816
▁dra	-3817
ankly	-3818
apped	-3819
hemat	-3820
imate	-3821
▁Time	-3822
▁bass	-3823
▁dumb	-3824
▁elev	-3825
▁fond	-3826
▁infl	-3827
▁meth	-3828
▁poin	-3829
▁rate	-3830
▁thin	-3831
▁toil	-3832
▁valu	-3833
pected	-3834
rently	-3835
▁Water	-3836
▁brief	-3837
▁brush	-3838
▁drove	-3839
▁false	-3840
▁finan	-3841
▁goods	-3842
▁gotta	-3843
▁major	-3844
▁pants	-3845
▁shelf	-3846
▁spare	-3847
▁weigh	-3848
ouraged	-3849
▁Choose	-3850
▁clouds	-3851
▁conven	-3852
▁corner	-3853
▁indust	-3854
▁invite	-3855
▁nature	-3856
▁orange	-3857
▁places	-3858
▁poured	-3859
▁rarely	-3860
▁repeat	-3861
▁violin	-3862
ervation	-3863
▁disturb	-3864
▁divorce	-3865
▁fortune	-3866
▁happier	-3867
▁ignored	-3868
▁scolded	-3869
▁service	-3870
▁silence	-3871
▁argument	-3872
▁canceled	-3873
▁contract	-3874
▁notebook	-3875
▁powerful	-3876
nfortunately	-3877
▁concentrate	-3878
▁disappeared	-3879
erk	-3880
iev	-3881
iff	-3882
und	-3883
▁Bu	-3884
eral	-3885
fers	-3886
gged	-3887
ners	-3888
site	-3889
▁Act	-3890
▁blo	-3891
▁ded	-3892
▁dry	-3893
▁foc	-3894
▁fro	-3895
▁jam	-3896
▁lou	-3897
▁pan	-3898
▁ric	-3899
arrow	-3900
itude	-3901
ology	-3902
▁army	-3903
▁aunt	-3904
▁bags	-3905
▁belt	-3906
▁dare	-3907
▁dece	-3908
▁fork	-3909
▁hole	-3910
▁incl	-3911
▁meas	-3912
▁ones	-3913
▁owns	-3914
▁shoe	-3915
▁sink	-3916
▁tire	-3917
▁unex	-3918
▁unus	-3919
anding	-3920
angers	-3921
▁Three	-3922
▁argue	-3923
▁bench	-3924
▁candy	-3925
▁fifty	-3926
▁final	-3927
▁guard	-3928
▁helps	-3929
▁hopes	-3930
▁lower	-3931
▁rooms	-3932
▁roses	-3933
▁sales	-3934
▁screw	-3935
▁shame	-3936
▁silly	-3937
▁spoon	-3938
▁terms	-3939
▁walks	-3940
initely	-3941
▁Almost	-3942
▁admire	-3943
▁amount	-3944
▁begins	-3945
▁bitter	-3946
▁doubts	-3947
▁forest	-3948
▁ground	-3949
▁louder	-3950
▁method	-3951
▁parked	-3952
▁pieces	-3953
▁pulled	-3954
▁skinny	-3955
▁stared	-3956
hematics	-3957
▁adopted	-3958
▁capable	-3959
▁content	-3960
▁contest	-3961
▁crowded	-3962
▁elected	-3963
▁finding	-3964
▁granted	-3965
▁handled	-3966
▁hanging	-3967
▁offered	-3968
▁smiling	-3969
▁unlucky	-3970
▁cleaning	-3971
▁distract	-3972
▁dreaming	-3973
▁election	-3974
▁handsome	-3975
▁holidays	-3976
▁horrible	-3977
▁pressure	-3978
▁relation	-3979
▁wherever	-3980
▁committed	-3981
▁suspicious	-3982
▁unexpected	-3983
01	-3984
ma	-3985
aff	-3986
bum	-3987
cut	-3988
els	-3989
ept	-3990
iny	-3991
kay	-3992
por	-3993
rop	-3994
sed	-3995
▁CD	-3996
▁Oh	-3997
fact	-3998
look	-3999
oved	-4000
uled	-4001
▁Gen	-4002
▁arr	-4003
▁err	-4004
▁est	-4005
▁glo	-4006
▁sty	-4007
▁sum	-4008
acter	-4009
aring	-4010
eding	-4011
essed	-4012
mates	-4013
orses	-4014
ratul	-4015
▁Brit	-4016
▁Cats	-4017
▁Luck	-4018
▁fold	-4019
▁gain	-4020
▁host	-4021
▁iron	-4022
▁mall	-4023
▁soph	-4024
▁ways	-4025
everal	-4026
▁Italy	-4027
▁album	-4028
▁cares	-4029
▁claim	-4030
▁faith	-4031
▁force	-4032
▁plant	-4033
▁socks	-4034
▁thick	-4035
▁truly	-4036
▁Africa	-4037
▁Forget	-4038
▁cheese	-4039
▁genius	-4040
▁hammer	-4041
▁income	-4042
▁narrow	-4043
▁papers	-4044
▁photos	-4045
▁pushed	-4046
▁rabbit	-4047
▁square	-4048
▁toilet	-4049
▁toward	-4050
▁victim	-4051
ongratul	-4052
▁Several	-4053
▁Smoking	-4054
▁Without	-4055
▁bargain	-4056
▁conclus	-4057
▁doctors	-4058
▁options	-4059
▁reminds	-4060
▁website	-4061
▁describe	-4062
▁kindness	-4063
▁sometime	-4064
▁visiting	-4065
▁worrying	-4066
▁continued	-4067
▁gentleman	-4068
▁knowledge	-4069
▁friendship	-4070
▁incredible	-4071
▁newspapers	-4072
▁reasonable	-4073
▁translated	-4074
▁yourselves	-4075
▁relationship	-4076
go	-4077
asc	-4078
hib	-4079
lex	-4080
oph	-4081
uce	-4082
acle	-4083
dern	-4084
inet	-4085
itiz	-4086
king	-4087
mail	-4088
omen	-4089
osqu	-4090
uded	-4091
▁Sit	-4092
▁agg	-4093
▁fan	-4094
▁gat	-4095
▁pra	-4096
▁rac	-4097
▁spo	-4098
ician	-4099
riage	-4100
▁Russ	-4101
▁carp	-4102
▁cott	-4103
▁curt	-4104
▁data	-4105
▁deny	-4106
▁fake	-4107
▁fate	-4108
▁fill	-4109
▁film	-4110
▁spec	-4111
▁tech	-4112
priate	-4113
▁alarm	-4114
▁anger	-4115
▁earns	-4116
▁legal	-4117
▁lines	-4118
▁mosqu	-4119
▁sells	-4120
▁shook	-4121
ference	-4122
ization	-4123
▁Anyone	-4124
▁author	-4125
▁danced	-4126
▁dumped	-4127
▁eleven	-4128
▁flying	-4129
▁insist	-4130
▁novels	-4131
▁ruined	-4132
▁sleeps	-4133
▁starts	-4134
▁thanks	-4135
▁weapon	-4136
fficient	-4137
▁Anybody	-4138
▁Jackson	-4139
▁assumed	-4140
▁greeted	-4141
▁kissing	-4142
▁knocked	-4143
▁largest	-4144
▁mistook	-4145
▁prepare	-4146
▁reasons	-4147
▁removed	-4148
▁selling	-4149
▁shorter	-4150
▁stories	-4151
▁witness	-4152
▁criminal	-4153
▁elevator	-4154
▁evidence	-4155
▁gathered	-4156
▁midnight	-4157
▁properly	-4158
▁bothering	-4159
▁departure	-4160
▁desperate	-4161
▁destroyed	-4162
▁education	-4163
▁mountains	-4164
▁paintings	-4165
▁screaming	-4166
▁confidence	-4167
▁passengers	-4168
▁performance	-4169
▁understands	-4170
ji	-4171
att	-4172
ipt	-4173
mon	-4174
now	-4175
obe	-4176
uff	-4177
▁Ab	-4178
▁En	-4179
arch	-4180
cean	-4181
onst	-4182
rain	-4183
uted	-4184
vert	-4185
▁100	-4186
▁Air	-4187
▁deg	-4188
▁dig	-4189
▁ink	-4190
▁lab	-4191
▁spl	-4192
▁wha	-4193
anged	-4194
eered	-4195
stick	-4196
verse	-4197
▁Find	-4198
▁Next	-4199
▁bull	-4200
▁cult	-4201
▁dess	-4202
▁emot	-4203
▁firm	-4204
▁hers	-4205
▁hook	-4206
▁jobs	-4207
▁mark	-4208
▁okay	-4209
▁sons	-4210
▁surr	-4211
▁Guess	-4212
▁Speak	-4213
▁Think	-4214
▁aside	-4215
▁beard	-4216
▁board	-4217
▁citiz	-4218
▁mater	-4219
▁remem	-4220
▁salad	-4221
▁shall	-4222
▁skill	-4223
▁beauty	-4224
▁bitten	-4225
▁cooper	-4226
▁mirror	-4227
▁robber	-4228
▁supper	-4229
▁volunt	-4230
▁absence	-4231
▁aggress	-4232
▁barking	-4233
▁choices	-4234
▁cleared	-4235
▁concern	-4236
▁delayed	-4237
▁engaged	-4238
▁lecture	-4239
▁planted	-4240
▁unusual	-4241
▁warning	-4242
isticated	-4243
▁attended	-4244
▁deserves	-4245
▁hesitate	-4246
▁industry	-4247
▁instruct	-4248
▁intended	-4249
▁patience	-4250
▁possibly	-4251
▁products	-4252
▁survived	-4253
▁thirteen	-4254
▁challenge	-4255
▁customers	-4256
▁discussed	-4257
▁disturbed	-4258
▁suffering	-4259
▁determined	-4260
▁surprising	-4261
▁reservation	-4262
▁sophisticated	-4263
ev	-4264
gn	-4265
esp	-4266
ium	-4267
jud	-4268
oos	-4269
pha	-4270
▁Me	-4271
▁da	-4272
aced	-4273
gage	-4274
ompl	-4275
vors	-4276
word	-4277
▁Had	-4278
▁Har	-4279
▁Mom	-4280
▁gif	-4281
▁mob	-4282
▁pil	-4283
▁pos	-4284
▁rub	-4285
▁tor	-4286
▁vot	-4287
anced	-4288
anish	-4289
antly	-4290
arily	-4291
heart	-4292
phoon	-4293
place	-4294
urity	-4295
▁Fill	-4296
▁Lear	-4297
▁List	-4298
▁appl	-4299
▁blew	-4300
▁blow	-4301
▁buck	-4302
▁gamb	-4303
▁nons	-4304
▁poet	-4305
▁thro	-4306
▁trap	-4307
issors	-4308
lished	-4309
▁Doing	-4310
▁Spain	-4311
▁While	-4312
▁Women	-4313
▁alike	-4314
▁armed	-4315
▁baked	-4316
▁cerem	-4317
▁cover	-4318
▁dozen	-4319
▁drugs	-4320
▁eager	-4321
▁field	-4322
▁flood	-4323
▁guide	-4324
▁handy	-4325
▁hello	-4326
▁honey	-4327
▁issue	-4328
▁local	-4329
▁motor	-4330
▁nicer	-4331
▁rainy	-4332
▁shout	-4333
▁spite	-4334
▁sweat	-4335
▁twins	-4336
▁value	-4337
iculous	-4338
▁Follow	-4339
▁behave	-4340
▁closet	-4341
▁cooked	-4342
▁fought	-4343
▁height	-4344
▁insane	-4345
▁intern	-4346
▁itself	-4347
▁lesson	-4348
▁resour	-4349
▁retire	-4350
▁strike	-4351
▁Frankly	-4352
▁Promise	-4353
▁Spanish	-4354
▁accompl	-4355
▁apology	-4356
▁biggest	-4357
▁breathe	-4358
▁candles	-4359
▁charges	-4360
▁climate	-4361
▁contrib	-4362
▁dessert	-4363
▁disgust	-4364
▁mystery	-4365
▁opening	-4366
▁predict	-4367
▁putting	-4368
▁related	-4369
▁secrets	-4370
▁sincere	-4371
▁tallest	-4372
▁whoever	-4373
▁wounded	-4374
▁Anything	-4375
▁Tomorrow	-4376
▁counting	-4377
▁demanded	-4378
▁greatest	-4379
▁informed	-4380
▁nonsense	-4381
▁particip	-4382
▁potatoes	-4383
▁scissors	-4384
▁textbook	-4385
▁valuable	-4386
▁wondered	-4387
▁agreement	-4388
▁daughters	-4389
▁sensitive	-4390
▁appearance	-4391
▁definitely	-4392
▁discovered	-4393
▁incredibly	-4394
▁electricity	-4395
gs	-4396
pa	-4397
Yes	-4398
awa	-4399
lig	-4400
met	-4401
rel	-4402
zer	-4403
▁De	-4404
▁Mt	-4405
bage	-4406
ears	-4407
icro	-4408
pper	-4409
reas	-4410
▁Dri	-4411
▁hom	-4412
▁sou	-4413
▁uns	-4414
▁van	-4415
▁var	-4416
allow	-4417
arian	-4418
chief	-4419
riger	-4420
tered	-4421
ugged	-4422
ummer	-4423
▁Grab	-4424
▁More	-4425
▁bare	-4426
▁bomb	-4427
▁entr	-4428
▁lack	-4429
▁leak	-4430
▁neat	-4431
▁rail	-4432
▁roll	-4433
▁sore	-4434
▁symp	-4435
▁twin	-4436
▁vain	-4437
employ	-4438
▁Drink	-4439
▁Enjoy	-4440
▁absor	-4441
▁begun	-4442
▁blank	-4443
▁champ	-4444
▁crack	-4445
▁grown	-4446
▁humor	-4447
▁ident	-4448
▁nerve	-4449
▁outra	-4450
▁overc	-4451
▁overw	-4452
▁sport	-4453
▁survi	-4454
▁techn	-4455
▁tense	-4456
▁timid	-4457
▁uncom	-4458
ilities	-4459
▁Listen	-4460
▁assume	-4461
▁bottom	-4462
▁center	-4463
▁coward	-4464
▁drawer	-4465
▁gloves	-4466
▁higher	-4467
▁modern	-4468
▁planet	-4469
▁plants	-4470
▁policy	-4471
▁rented	-4472
▁resist	-4473
▁seated	-4474
▁shirts	-4475
▁strugg	-4476
▁subway	-4477
▁wasted	-4478
▁ceiling	-4479
▁closely	-4480
▁dreamed	-4481
▁economy	-4482
▁fainted	-4483
▁fastest	-4484
▁helpful	-4485
▁honesty	-4486
▁mosquit	-4487
▁pockets	-4488
▁science	-4489
▁trained	-4490
▁typhoon	-4491
▁accompan	-4492
▁admitted	-4493
▁annoying	-4494
▁bleeding	-4495
▁ceremony	-4496
▁communic	-4497
▁exchange	-4498
▁fluently	-4499
▁musician	-4500
▁refriger	-4501
▁signific	-4502
▁violence	-4503
▁attempted	-4504
▁postponed	-4505
▁suitcases	-4506
▁volunteer	-4507
▁apologized	-4508
▁ridiculous	-4509
▁threatened	-4510
▁experienced	-4511
▁instructions	-4512
▁uncomfortable	-4513
ey	-4514
cts	-4515
eaf	-4516
isy	-4517
oat	-4518
rer	-4519
▁Ob	-4520
▁Pr	-4521
▁ju	-4522
iche	-4523
iron	-4524
mate	-4525
pock	-4526
ster	-4527
vard	-4528
▁App	-4529
▁But	-4530
▁Fin	-4531
▁Won	-4532
▁ant	-4533
▁bal	-4534
▁bee	-4535
▁bud	-4536
▁hyp	-4537
▁raw	-4538
▁sew	-4539
▁smo	-4540
▁tip	-4541
agger	-4542
ators	-4543
inary	-4544
rices	-4545
store	-4546
▁Chan	-4547
▁Cont	-4548
▁Each	-4549
▁aver	-4550
▁deaf	-4551
▁decl	-4552
▁ease	-4553
▁fant	-4554
▁hall	-4555
▁lean	-4556
▁lugg	-4557
▁mass	-4558
▁rush	-4559
▁task	-4560
▁tied	-4561
▁worn	-4562
handed	-4563
orrect	-4564
▁Doesn	-4565
▁Light	-4566
▁Shall	-4567
▁fully	-4568
▁influ	-4569
▁limit	-4570
▁purse	-4571
▁sting	-4572
▁straw	-4573
▁suits	-4574
▁swear	-4575
▁total	-4576
▁turns	-4577
▁voted	-4578
imistic	-4579
▁Canada	-4580
▁Intern	-4581
▁Prices	-4582
▁advert	-4583
▁detect	-4584
▁double	-4585
▁farmer	-4586
▁formed	-4587
▁horses	-4588
▁nearby	-4589
▁regard	-4590
▁regist	-4591
▁signed	-4592
▁unfair	-4593
ironment	-4594
▁Harvard	-4595
▁Mondays	-4596
▁actress	-4597
▁baggage	-4598
▁chances	-4599
▁comment	-4600
▁factory	-4601
▁funeral	-4602
▁keeping	-4603
▁luggage	-4604
▁remains	-4605
▁require	-4606
▁ringing	-4607
▁sounded	-4608
▁weapons	-4609
▁achieved	-4610
▁beginner	-4611
▁entrance	-4612
▁graduate	-4613
▁incident	-4614
▁marriage	-4615
▁password	-4616
▁required	-4617
▁strongly	-4618
▁assistant	-4619
▁computers	-4620
▁connected	-4621
▁dedicated	-4622
▁exchanged	-4623
▁financial	-4624
▁preparing	-4625
▁aggressive	-4626
▁assistance	-4627
▁cigarettes	-4628
▁complaints	-4629
▁conference	-4630
▁convenient	-4631
▁distracted	-4632
▁successful	-4633
▁accompanied	-4634
▁application	-4635
▁translation	-4636
▁volunteered	-4637
▁refrigerator	-4638
▁investigation	-4639
No	-4640
gy	-4641
lo	-4642
azz	-4643
cha	-4644
ids	-4645
jam	-4646
mar	-4647
ply	-4648
pre	-4649
▁Fu	-4650
▁Su	-4651
▁nu	-4652
ivid	-4653
onna	-4654
reck	-4655
rupt	-4656
▁And	-4657
▁Cut	-4658
▁Dad	-4659
▁Exp	-4660
▁eld	-4661
▁lat	-4662
▁mud	-4663
▁rap	-4664
ament	-4665
amond	-4666
ascin	-4667
bered	-4668
erson	-4669
hache	-4670
hetic	-4671
ounds	-4672
▁Gree	-4673
▁Hang	-4674
▁Save	-4675
▁Soon	-4676
▁comb	-4677
▁crew	-4678
▁defe	-4679
▁earn	-4680
▁edge	-4681
▁flew	-4682
▁item	-4683
▁jerk	-4684
▁lawn	-4685
▁ment	-4686
▁pens	-4687
▁plum	-4688
▁poll	-4689
▁sett	-4690
▁tail	-4691
▁wave	-4692
▁wild	-4693
▁wire	-4694
erable	-4695
erally	-4696
ivated	-4697
lected	-4698
ration	-4699
screen	-4700
though	-4701
▁First	-4702
▁Money	-4703
▁Stand	-4704
▁appet	-4705
▁attic	-4706
▁cheek	-4707
▁gonna	-4708
▁grave	-4709
▁homes	-4710
▁juice	-4711
▁noisy	-4712
▁oblig	-4713
▁occas	-4714
▁ocean	-4715
▁reads	-4716
▁risks	-4717
▁sheep	-4718
▁staff	-4719
▁stamp	-4720
▁taxes	-4721
▁troub	-4722
▁whist	-4723
▁wreck	-4724
agement	-4725
ichever	-4726
ologist	-4727
▁beside	-4728
▁circle	-4729
▁dancer	-4730
▁fascin	-4731
▁ghosts	-4732
▁headed	-4733
▁hidden	-4734
▁insult	-4735
▁loudly	-4736
▁online	-4737
▁puzzle	-4738
▁recent	-4739
▁reject	-4740
▁shaken	-4741
▁silver	-4742
▁simply	-4743
▁smooth	-4744
▁social	-4745
▁surren	-4746
▁throat	-4747
▁warmer	-4748
alentine	-4749
kerchief	-4750
onscious	-4751
▁ancient	-4752
▁camping	-4753
▁cheaper	-4754
▁complex	-4755
▁despise	-4756
▁devoted	-4757
▁exagger	-4758
▁fingers	-4759
▁hunting	-4760
▁journey	-4761
▁miracle	-4762
▁protest	-4763
▁psychic	-4764
▁receipt	-4765
▁recover	-4766
▁regular	-4767
▁richest	-4768
▁streets	-4769
▁towards	-4770
▁turning	-4771
▁useless	-4772
▁allergic	-4773
▁approved	-4774
▁clothing	-4775
▁compared	-4776
▁consists	-4777
▁gunshots	-4778
▁increase	-4779
▁mosquito	-4780
▁pickpock	-4781
▁presence	-4782
▁research	-4783
▁security	-4784
▁stopping	-4785
▁teenager	-4786
▁tourists	-4787
▁unemploy	-4788
▁universe	-4789
▁addressed	-4790
▁authority	-4791
▁backwards	-4792
▁bookstore	-4793
▁character	-4794
▁congratul	-4795
▁effective	-4796
▁miserable	-4797
▁religious	-4798
▁satisfact	-4799
▁scientist	-4800
▁sunscreen	-4801
▁whichever	-4802
▁acquainted	-4803
▁classmates	-4804
▁connection	-4805
▁recognized	-4806
▁environment	-4807
▁handkerchief	-4808
▁professional	-4809
bs	-4810
ald	-4811
alf	-4812
ama	-4813
eed	-4814
nel	-4815
que	-4816
rad	-4817
uct	-4818
urs	-4819
was	-4820
▁Ar	-4821
▁Fl	-4822
▁bi	-4823
aire	-4824
aled	-4825
cast	-4826
cles	-4827
elve	-4828
ends	-4829
ents	-4830
gery	-4831
lace	-4832
lish	-4833
mare	-4834
town	-4835
▁Add	-4836
▁Bet	-4837
▁Dis	-4838
▁Man	-4839
▁Men	-4840
▁Pol	-4841
▁Red	-4842
▁bot	-4843
▁bru	-4844
▁cro	-4845
▁imm	-4846
▁pet	-4847
▁shr	-4848
▁spy	-4849
▁toy	-4850
agers	-4851
antic	-4852
bborn	-4853
chite	-4854
eight	-4855
ieves	-4856
igned	-4857
itzer	-4858
▁Half	-4859
▁Pres	-4860
▁cher	-4861
▁code	-4862
▁ends	-4863
▁fits	-4864
▁flag	-4865
▁fund	-4866
▁fuss	-4867
▁jazz	-4868
▁lent	-4869
▁puts	-4870
▁rare	-4871
▁rose	-4872
▁sees	-4873
▁tatt	-4874
▁tiny	-4875
▁trad	-4876
cially	-4877
cience	-4878
▁Check	-4879
▁India	-4880
▁aimed	-4881
▁ambul	-4882
▁bills	-4883
▁blown	-4884
▁chose	-4885
▁court	-4886
▁crash	-4887
▁equal	-4888
▁error	-4889
▁maybe	-4890
▁mouse	-4891
▁opera	-4892
▁sings	-4893
▁skirt	-4894
▁south	-4895
▁stret	-4896
▁walls	-4897
▁wheel	-4898
glasses	-4899
▁autumn	-4900
▁battle	-4901
▁budget	-4902
▁buried	-4903
▁candle	-4904
▁cities	-4905
▁commit	-4906
▁expert	-4907
▁folded	-4908
▁frustr	-4909
▁gather	-4910
▁kicked	-4911
▁latest	-4912
▁nation	-4913
▁option	-4914
▁shared	-4915
▁trains	-4916
▁trusts	-4917
▁unlock	-4918
▁British	-4919
▁Russian	-4920
▁Switzer	-4921
▁archite	-4922
▁average	-4923
▁bedtime	-4924
▁burning	-4925
▁diamond	-4926
▁garbage	-4927
▁general	-4928
▁guessed	-4929
▁motorcy	-4930
▁package	-4931
▁proceed	-4932
▁quarter	-4933
▁snowing	-4934
▁surgery	-4935
▁watches	-4936
▁yelling	-4937
▁Internet	-4938
▁Remember	-4939
▁addition	-4940
▁ambition	-4941
▁attitude	-4942
▁cheating	-4943
▁deadline	-4944
▁families	-4945
▁improved	-4946
▁positive	-4947
▁prisoner	-4948
▁promoted	-4949
▁rejected	-4950
▁resource	-4951
▁stubborn	-4952
▁underest	-4953
▁President	-4954
▁blackmail	-4955
▁complaint	-4956
▁disappear	-4957
▁essential	-4958
▁fantastic	-4959
▁nightmare	-4960
▁permitted	-4961
▁pronounce	-4962
▁recovered	-4963
▁survivors	-4964
▁basketball	-4965
▁collecting	-4966
▁department	-4967
▁disappoint	-4968
▁disgusting	-4969
▁journalist	-4970
▁personally	-4971
▁photograph	-4972
▁productive	-4973
▁remembered	-4974
▁surrounded	-4975
▁Switzerland	-4976
▁appropriate	-4977
▁mathematics	-4978
▁significant	-4979
gu	-4980
bly	-4981
▁dy	-4982
ales	-4983
aste	-4984
atic	-4985
cure	-4986
eans	-4987
geon	-4988
irds	-4989
isis	-4990
ival	-4991
oked	-4992
ters	-4993
uary	-4994
ware	-4995
wise	-4996
yond	-4997
▁Car	-4998
▁Jud	-4999
▁Rep	-5000
▁pin	-5001
▁scr	-5002
▁ske	-5003
▁suf	-5004
▁tar	-5005
aches	-5006
asing	-5007
aving	-5008
iform	-5009
inded	-5010
jamas	-5011
pered	-5012
uding	-5013
▁Fuji	-5014
▁Happ	-5015
▁June	-5016
▁Love	-5017
▁Rome	-5018
▁ages	-5019
▁bold	-5020
▁chop	-5021
▁craw	-5022
▁gear	-5023
▁grap	-5024
▁laws	-5025
▁oven	-5026
▁stat	-5027
▁thor	-5028
ounced	-5029
washer	-5030
▁Haven	-5031
▁arrog	-5032
▁aston	-5033
▁bloom	-5034
▁bunch	-5035
▁cloth	-5036
▁debts	-5037
▁falls	-5038
▁flies	-5039
▁forty	-5040
▁freed	-5041
▁loose	-5042
▁loser	-5043
▁micro	-5044
▁north	-5045
▁outdo	-5046
▁pilot	-5047
▁pride	-5048
▁scary	-5049
▁steps	-5050
▁stops	-5051
▁tests	-5052
▁toler	-5053
▁trunk	-5054
▁whale	-5055
ciation	-5056
ievable	-5057
onsider	-5058
ruction	-5059
stances	-5060
▁Either	-5061
▁Fortun	-5062
▁accent	-5063
▁action	-5064
▁banana	-5065
▁beyond	-5066
▁border	-5067
▁calcul	-5068
▁chairs	-5069
▁fooled	-5070
▁lifted	-5071
▁mobile	-5072
▁princi	-5073
▁rising	-5074
▁safely	-5075
▁supply	-5076
▁Italian	-5077
▁Shouldn	-5078
▁achieve	-5079
▁annoyed	-5080
▁battery	-5081
▁century	-5082
▁cottage	-5083
▁crashed	-5084
▁envelop	-5085
▁interse	-5086
▁logical	-5087
▁medical	-5088
▁numbers	-5089
▁pajamas	-5090
▁parking	-5091
▁pencils	-5092
▁pianist	-5093
▁privacy	-5094
▁selfish	-5095
▁settled	-5096
▁surgeon	-5097
▁thanked	-5098
▁uniform	-5099
▁Although	-5100
▁absolute	-5101
▁appetite	-5102
▁bothered	-5103
▁critical	-5104
▁downtown	-5105
▁gambling	-5106
▁generous	-5107
▁helpless	-5108
▁imagined	-5109
▁invented	-5110
▁necklace	-5111
▁princess	-5112
▁searched	-5113
▁slightly	-5114
▁suffered	-5115
▁thorough	-5116
▁youngest	-5117
▁accidents	-5118
▁ambulance	-5119
▁answering	-5120
▁direction	-5121
▁efficient	-5122
▁employees	-5123
▁magazines	-5124
▁published	-5125
▁respected	-5126
▁strangers	-5127
▁terrified	-5128
▁whispered	-5129
▁acceptable	-5130
▁blackboard	-5131
▁dishwasher	-5132
▁foreigners	-5133
▁importance	-5134
▁politician	-5135
▁registered	-5136
▁sunglasses	-5137
▁supportive	-5138
▁temptation	-5139
▁appreciated	-5140
▁composition	-5141
▁discouraged	-5142
▁millionaire	-5143
▁personality	-5144
▁unconscious	-5145
▁embarrassing	-5146
▁particularly	-5147
▁disappointing	-5148
It	-5149
ux	-5150
xy	-5151
ym	-5152
ero	-5153
ipl	-5154
ipp	-5155
oot	-5156
pir	-5157
rig	-5158
yst	-5159
▁Pa	-5160
iece	-5161
itor	-5162
ivil	-5163
ords	-5164
owed	-5165
sequ	-5166
▁Pay	-5167
▁Ten	-5168
▁Tie	-5169
▁Whe	-5170
▁bra	-5171
▁gro	-5172
▁gym	-5173
▁ham	-5174
▁hik	-5175
▁joy	-5176
▁mix	-5177
▁pig	-5178
▁ren	-5179
▁rom	-5180
▁tig	-5181
▁voc	-5182
adays	-5183
anges	-5184
aries	-5185
clear	-5186
enses	-5187
epend	-5188
geous	-5189
guard	-5190
ption	-5191
shirt	-5192
ticip	-5193
▁Dogs	-5194
▁Face	-5195
▁Inst	-5196
▁Nice	-5197
▁Over	-5198
▁Park	-5199
▁Play	-5200
▁Wash	-5201
▁beef	-5202
▁caut	-5203
▁cave	-5204
▁chem	-5205
▁chew	-5206
▁circ	-5207
▁clue	-5208
▁cure	-5209
▁disp	-5210
▁dust	-5211
▁flex	-5212
▁imit	-5213
▁mile	-5214
▁obst	-5215
▁pros	-5216
▁uses	-5217
▁visa	-5218
leased	-5219
phants	-5220
porary	-5221
resent	-5222
▁Alice	-5223
▁Birds	-5224
▁adult	-5225
▁below	-5226
▁boots	-5227
▁brand	-5228
▁cared	-5229
▁coins	-5230
▁compl	-5231
▁cough	-5232
▁decor	-5233
▁faces	-5234
▁flash	-5235
▁fries	-5236
▁gifts	-5237
▁goals	-5238
▁grows	-5239
▁hoped	-5240
▁knees	-5241
▁liter	-5242
▁magic	-5243
▁refer	-5244
▁risky	-5245
▁serve	-5246
▁shade	-5247
▁shake	-5248
▁skate	-5249
▁sneak	-5250
▁steak	-5251
▁tires	-5252
hearted	-5253
▁Summer	-5254
▁agrees	-5255
▁blamed	-5256
▁breaks	-5257
▁bucket	-5258
▁carpet	-5259
▁collap	-5260
▁crisis	-5261
▁debate	-5262
▁differ	-5263
▁dollar	-5264
▁errors	-5265
▁fluent	-5266
▁incomp	-5267
▁larger	-5268
▁meters	-5269
▁origin	-5270
▁packed	-5271
▁pillow	-5272
▁prohib	-5273
▁rescue	-5274
▁stress	-5275
▁suffer	-5276
▁target	-5277
▁verify	-5278
▁wishes	-5279
▁worker	-5280
▁Reading	-5281
▁Whether	-5282
▁admired	-5283
▁anticip	-5284
▁becomes	-5285
▁besides	-5286
▁comfort	-5287
▁consequ	-5288
▁consult	-5289
▁degrees	-5290
▁divided	-5291
▁donated	-5292
▁enemies	-5293
▁haircut	-5294
▁hurting	-5295
▁painful	-5296
▁provide	-5297
▁records	-5298
▁remarks	-5299
▁rescued	-5300
▁slipped	-5301
▁spotted	-5302
▁Actually	-5303
▁breaking	-5304
▁bringing	-5305
▁cautious	-5306
▁changing	-5307
▁charming	-5308
▁discount	-5309
▁envelope	-5310
▁eyesight	-5311
▁ignorant	-5312
▁interpre	-5313
▁national	-5314
▁occasion	-5315
▁outdoors	-5316
▁relative	-5317
▁requires	-5318
▁treating	-5319
▁Generally	-5320
▁architect	-5321
▁cellphone	-5322
▁cigarette	-5323
▁decisions	-5324
▁mentioned	-5325
▁operation	-5326
▁political	-5327
▁secretary	-5328
▁accomplish	-5329
▁compromise	-5330
▁conditions	-5331
▁motorcycle	-5332
▁suggesting	-5333
▁Fortunately	-5334
▁resourceful	-5335
▁difficulties	-5336
▁intersection	-5337
▁misunderstood	-5338
▁i	-5339
ibi	-5340
ips	-5341
kin	-5342
lev	-5343
min	-5344
udd	-5345
val	-5346
yal	-5347
zed	-5348
▁11	-5349
▁Co	-5350
▁Mo	-5351
▁hi	-5352
atis	-5353
burn	-5354
card	-5355
exic	-5356
fere	-5357
iver	-5358
oors	-5359
oudy	-5360
scri	-5361
swer	-5362
view	-5363
wood	-5364
▁Bra	-5365
▁Buy	-5366
▁Cal	-5367
▁Lin	-5368
▁Res	-5369
▁fox	-5370
▁hon	-5371
▁jog	-5372
▁non	-5373
▁ord	-5374
▁reb	-5375
▁rot	-5376
▁row	-5377
▁sen	-5378
▁unw	-5379
ching	-5380
ender	-5381
erved	-5382
ewrit	-5383
iplom	-5384
itary	-5385
ookie	-5386
otion	-5387
overy	-5388
rated	-5389
sites	-5390
unate	-5391
▁Kore	-5392
▁Move	-5393
▁Pass	-5394
▁Talk	-5395
▁bran	-5396
▁chat	-5397
▁coun	-5398
▁drew	-5399
▁envy	-5400
▁irre	-5401
▁lamp	-5402
▁mere	-5403
▁nail	-5404
▁nodd	-5405
▁oyst	-5406
▁pier	-5407
▁pray	-5408
▁pure	-5409
▁ruin	-5410
▁sail	-5411
▁sank	-5412
▁spin	-5413
▁stro	-5414
▁toot	-5415
▁wand	-5416
▁wide	-5417
aching	-5418
acting	-5419
ending	-5420
ession	-5421
levant	-5422
minded	-5423
ughter	-5424
▁About	-5425
▁Being	-5426
▁Clean	-5427
▁Clear	-5428
▁Mexic	-5429
▁Words	-5430
▁arrow	-5431
▁basic	-5432
▁bribe	-5433
▁coach	-5434
▁conce	-5435
▁crops	-5436
▁daily	-5437
▁finds	-5438
▁focus	-5439
▁hilar	-5440
▁jeans	-5441
▁mercy	-5442
▁minor	-5443
▁oppos	-5444
▁pitch	-5445
▁poems	-5446
▁pregn	-5447
▁reput	-5448
▁style	-5449
▁thumb	-5450
▁topic	-5451
▁track	-5452
▁trade	-5453
▁valid	-5454
▁waved	-5455
▁woken	-5456
▁youth	-5457
looking	-5458
▁Answer	-5459
▁adults	-5460
▁affair	-5461
▁begged	-5462
▁cloudy	-5463
▁decent	-5464
▁desire	-5465
▁fatter	-5466
▁hugged	-5467
▁laughs	-5468
▁loaded	-5469
▁permit	-5470
▁praise	-5471
▁punish	-5472
▁settle	-5473
▁snakes	-5474
▁stands	-5475
▁tattoo	-5476
▁terror	-5477
▁thrown	-5478
▁treats	-5479
▁twelve	-5480
▁volume	-5481
▁warmth	-5482
▁However	-5483
▁Luckily	-5484
▁Parents	-5485
▁applies	-5486
▁beating	-5487
▁blocked	-5488
▁briefly	-5489
▁confuse	-5490
▁contain	-5491
▁dislike	-5492
▁dragged	-5493
▁excuses	-5494
▁grabbed	-5495
▁heavily	-5496
▁highest	-5497
▁indoors	-5498
▁insects	-5499
▁mission	-5500
▁officer	-5501
▁oysters	-5502
▁plastic	-5503
▁prefers	-5504
▁quality	-5505
▁receive	-5506
▁shaking	-5507
▁soldier	-5508
▁starved	-5509
▁subscri	-5510
▁sympath	-5511
▁thieves	-5512
▁tricked	-5513
ibilities	-5514
umstances	-5515
▁Compared	-5516
▁Learning	-5517
▁absorbed	-5518
▁addicted	-5519
▁arranged	-5520
▁arrogant	-5521
▁customer	-5522
▁drowning	-5523
▁flexible	-5524
▁insecure	-5525
▁laughter	-5526
▁material	-5527
▁mentally	-5528
▁negative	-5529
▁original	-5530
▁precious	-5531
▁provided	-5532
▁repeated	-5533
▁starving	-5534
▁suitable	-5535
▁terribly	-5536
▁tolerate	-5537
▁typewrit	-5538
▁unlocked	-5539
▁visitors	-5540
▁accompany	-5541
▁currently	-5542
▁detective	-5543
▁emotional	-5544
▁fortunate	-5545
▁generally	-5546
▁hilarious	-5547
▁increased	-5548
▁innocence	-5549
▁interfere	-5550
▁motivated	-5551
▁objection	-5552
▁represent	-5553
▁sentences	-5554
▁compliment	-5555
▁engagement	-5556
▁forgetting	-5557
▁impressive	-5558
▁optimistic	-5559
▁overweight	-5560
▁remarkable	-5561
▁vegetarian	-5562
▁approaching	-5563
▁competition	-5564
▁cooperation	-5565
▁fascinating	-5566
▁satisfactory	-5567
▁consideration	-5568
gr	-5569
ks	-5570
ago	-5571
ale	-5572
ara	-5573
asy	-5574
bet	-5575
bon	-5576
com	-5577
ggy	-5578
ien	-5579
ili	-5580
imp	-5581
lee	-5582
lph	-5583
oms	-5584
ped	-5585
tub	-5586
ulf	-5587
usi	-5588
▁Ad	-5589
▁Re	-5590
▁Se	-5591
▁cy	-5592
▁iP	-5593
ague	-5594
atin	-5595
chan	-5596
harm	-5597
iped	-5598
iter	-5599
lymp	-5600
oard	-5601
orld	-5602
pril	-5603
prin	-5604
rict	-5605
ulse	-5606
uous	-5607
vere	-5608
writ	-5609
year	-5610
▁Bad	-5611
▁Boy	-5612
▁CDs	-5613
▁Lie	-5614
▁Mus	-5615
▁Sud	-5616
▁ack	-5617
▁avo	-5618
▁led	-5619
▁ner	-5620
▁sac	-5621
▁tap	-5622
aptop	-5623
arant	-5624
ardon	-5625
denly	-5626
erous	-5627
icago	-5628
izing	-5629
phere	-5630
▁Lock	-5631
▁Mars	-5632
▁Sept	-5633
▁anal	-5634
▁dorm	-5635
▁exit	-5636
▁gram	-5637
▁gray	-5638
▁knee	-5639
▁maid	-5640
▁menu	-5641
▁onto	-5642
▁pace	-5643
▁pant	-5644
▁path	-5645
▁peel	-5646
▁soul	-5647
▁swam	-5648
▁toes	-5649
▁tore	-5650
▁toys	-5651
▁unre	-5652
imming	-5653
itable	-5654
ivered	-5655
judged	-5656
phabet	-5657
ulting	-5658
ursday	-5659
▁April	-5660
▁Hello	-5661
▁Latin	-5662
▁Olymp	-5663
▁South	-5664
▁Throw	-5665
▁World	-5666
▁accur	-5667
▁adapt	-5668
▁alibi	-5669
▁attor	-5670
▁blond	-5671
▁clung	-5672
▁creep	-5673
▁crush	-5674
▁filed	-5675
▁greed	-5676
▁guest	-5677
▁humid	-5678
▁image	-5679
▁intim	-5680
▁irrit	-5681
▁level	-5682
▁marks	-5683
▁ninet	-5684
▁oppon	-5685
▁overs	-5686
▁parts	-5687
▁pharm	-5688
▁prett	-5689
▁rapid	-5690
▁react	-5691
▁sauce	-5692
▁shave	-5693
▁sides	-5694
▁skept	-5695
▁slipp	-5696
▁split	-5697
▁swims	-5698
▁teens	-5699
▁trump	-5700
▁windy	-5701
berries	-5702
viously	-5703
▁Better	-5704
▁Having	-5705
▁Street	-5706
▁acknow	-5707
▁advent	-5708
▁appeal	-5709
▁beaten	-5710
▁career	-5711
▁cherry	-5712
▁contro	-5713
▁desert	-5714
▁devast	-5715
▁diplom	-5716
▁earned	-5717
▁faults	-5718
▁fridge	-5719
▁gained	-5720
▁grades	-5721
▁grapes	-5722
▁humili	-5723
▁intrig	-5724
▁joined	-5725
▁landed	-5726
▁laptop	-5727
▁mechan	-5728
▁motion	-5729
▁prince	-5730
▁racket	-5731
▁rested	-5732
▁ridden	-5733
▁rumors	-5734
▁sevent	-5735
▁smoked	-5736
▁smokes	-5737
▁source	-5738
▁Chicago	-5739
▁Instead	-5740
▁Judging	-5741
▁Welcome	-5742
▁applied	-5743
▁avoided	-5744
▁awfully	-5745
▁babysit	-5746
▁bananas	-5747
▁bathtub	-5748
▁charity	-5749
▁classes	-5750
▁culture	-5751
▁curtain	-5752
▁demands	-5753
▁demonst	-5754
▁differs	-5755
▁earring	-5756
▁freedom	-5757
▁guarant	-5758
▁hardest	-5759
▁harvest	-5760
▁jogging	-5761
▁landing	-5762
▁letting	-5763
▁longest	-5764
▁oranges	-5765
▁partner	-5766
▁payment	-5767
▁perhaps	-5768
▁plumber	-5769
▁pointed	-5770
▁seconds	-5771
▁slapped	-5772
▁Facebook	-5773
▁Suddenly	-5774
▁Thursday	-5775
▁alphabet	-5776
▁citizens	-5777
▁climbing	-5778
▁comments	-5779
▁crossing	-5780
▁eighteen	-5781
▁engineer	-5782
▁examined	-5783
▁forecast	-5784
▁hopeless	-5785
▁humanity	-5786
▁incompet	-5787
▁independ	-5788
▁knocking	-5789
▁opposite	-5790
▁ordinary	-5791
▁outraged	-5792
▁overwork	-5793
▁patients	-5794
▁presents	-5795
▁priority	-5796
▁register	-5797
▁released	-5798
▁religion	-5799
▁reminded	-5800
▁replaced	-5801
▁thankful	-5802
▁throwing	-5803
▁tomatoes	-5804
▁websites	-5805
▁weekends	-5806
▁Canadians	-5807
▁Obviously	-5808
▁September	-5809
▁according	-5810
▁buildings	-5811
▁confessed	-5812
▁delivered	-5813
▁horrified	-5814
▁ignorance	-5815
▁interview	-5816
▁lightning	-5817
▁misjudged	-5818
▁qualified	-5819
▁separated	-5820
▁struggled	-5821
▁subscribe	-5822
▁temporary	-5823
▁tradition	-5824
▁conclusion	-5825
▁directions	-5826
▁disturbing	-5827
▁flashlight	-5828
▁pretending	-5829
▁prohibited	-5830
▁reputation	-5831
▁unemployed	-5832
▁businessman	-5833
▁conditioner	-5834
▁considering	-5835
▁destination	-5836
▁experiences	-5837
▁participate	-5838
▁pickpockets	-5839
▁alternatives	-5840
?"	-5841
ah	-5842
ka	-5843
kn	-5844
ox	-5845
dom	-5846
het	-5847
idy	-5848
law	-5849
mit	-5850
nes	-5851
omy	-5852
rim	-5853
zil	-5854
▁Gl	-5855
▁ut	-5856
aven	-5857
cise	-5858
coln	-5859
duct	-5860
hlet	-5861
husi	-5862
icky	-5863
iles	-5864
mous	-5865
olic	-5866
olve	-5867
onse	-5868
rant	-5869
rots	-5870
sion	-5871
uine	-5872
utes	-5873
xoph	-5874
▁Bew	-5875
▁Bus	-5876
▁Ele	-5877
▁Hot	-5878
▁Hum	-5879
▁Jan	-5880
▁Min	-5881
▁Old	-5882
▁Pre	-5883
▁Pro	-5884
▁Tha	-5885
▁gor	-5886
▁rif	-5887
▁sch	-5888
▁sym	-5889
▁tab	-5890
about	-5891
armed	-5892
derer	-5893
ement	-5894
ially	-5895
iders	-5896
imney	-5897
ogram	-5898
orted	-5899
osity	-5900
raphy	-5901
rific	-5902
rived	-5903
ships	-5904
storm	-5905
▁Arab	-5906
▁Asia	-5907
▁Draw	-5908
▁Drop	-5909
▁Feel	-5910
▁Long	-5911
▁Sing	-5912
▁Walk	-5913
▁Wind	-5914
▁acts	-5915
▁ange	-5916
▁asks	-5917
▁bone	-5918
▁buys	-5919
▁dict	-5920
▁diss	-5921
▁dyed	-5922
▁evil	-5923
▁flin	-5924
▁hint	-5925
▁inch	-5926
▁kick	-5927
▁lion	-5928
▁pear	-5929
▁root	-5930
▁ruth	-5931
▁shad	-5932
▁soap	-5933
▁stew	-5934
▁tune	-5935
▁west	-5936
aneous	-5937
ilient	-5938
imated	-5939
ousers	-5940
sticks	-5941
thirty	-5942
ushing	-5943
▁Black	-5944
▁Cross	-5945
▁Greek	-5946
▁Trust	-5947
▁activ	-5948
▁anony	-5949
▁based	-5950
▁basis	-5951
▁burgl	-5952
▁cakes	-5953
▁choir	-5954
▁cliff	-5955
▁delay	-5956
▁drill	-5957
▁exams	-5958
▁faint	-5959
▁fined	-5960
▁frost	-5961
▁holds	-5962
▁incon	-5963
▁inher	-5964
▁items	-5965
▁lacks	-5966
▁loyal	-5967
▁maint	-5968
▁occup	-5969
▁offic	-5970
▁poker	-5971
▁prior	-5972
▁reven	-5973
▁roads	-5974
▁rocks	-5975
▁saint	-5976
▁scarf	-5977
▁shift	-5978
▁shows	-5979
▁signs	-5980
▁spont	-5981
▁stage	-5982
▁stink	-5983
▁stove	-5984
▁sunny	-5985
▁sword	-5986
▁tools	-5987
▁trout	-5988
▁unbel	-5989
▁vivid	-5990
▁weeds	-5991
▁wiped	-5992
▁wound	-5993
ongress	-5994
ressing	-5995
xophone	-5996
▁Beware	-5997
▁Brazil	-5998
▁Cookie	-5999
▁Sooner	-6000
▁aboard	-6001
▁access	-6002
▁amazed	-6003
▁amends	-6004
▁athlet	-6005
▁candid	-6006
▁causes	-6007
▁claims	-6008
▁copies	-6009
▁create	-6010
▁defeat	-6011
▁defend	-6012
▁ending	-6013
▁extent	-6014
▁formal	-6015
▁frozen	-6016
▁greedy	-6017
▁hiking	-6018
▁leaned	-6019
▁melted	-6020
▁messed	-6021
▁monkey	-6022
▁offend	-6023
▁overhe	-6024
▁priest	-6025
▁pronun	-6026
▁prover	-6027
▁refres	-6028
▁reluct	-6029
▁remote	-6030
▁risked	-6031
▁rotten	-6032
▁rushed	-6033
▁severe	-6034
▁skills	-6035
▁statue	-6036
▁stores	-6037
▁switch	-6038
▁tasted	-6039
▁teased	-6040
▁voices	-6041
▁yelled	-6042
atisfied	-6043
ervative	-6044
uriosity	-6045
▁Clearly	-6046
▁January	-6047
▁Lincoln	-6048
▁Washing	-6049
▁approve	-6050
▁arrives	-6051
▁billion	-6052
▁blowing	-6053
▁boiling	-6054
▁bottles	-6055
▁brushed	-6056
▁carrots	-6057
▁cheered	-6058
▁chimney	-6059
▁command	-6060
▁damaged	-6061
▁forgave	-6062
▁genuine	-6063
▁grandpa	-6064
▁halfway	-6065
▁hitting	-6066
▁intimid	-6067
▁massage	-6068
▁needing	-6069
▁nuclear	-6070
▁players	-6071
▁pressed	-6072
▁process	-6073
▁propose	-6074
▁pulling	-6075
▁quietly	-6076
▁reserve	-6077
▁robbery	-6078
▁scenery	-6079
▁sinking	-6080
▁spilled	-6081
▁spoiled	-6082
▁stylish	-6083
▁surface	-6084
▁swallow	-6085
▁swimmer	-6086
▁tracked	-6087
▁trapped	-6088
▁trumpet	-6089
▁various	-6090
▁victory	-6091
▁European	-6092
▁Swimming	-6093
▁Whenever	-6094
▁acquired	-6095
▁agreeing	-6096
▁attorney	-6097
▁captured	-6098
▁cheerful	-6099
▁childish	-6100
▁creative	-6101
▁deceived	-6102
▁deprived	-6103
▁deserted	-6104
▁deserved	-6105
▁disaster	-6106
▁grounded	-6107
▁homesick	-6108
▁hostages	-6109
▁insisted	-6110
▁majority	-6111
▁measures	-6112
▁memories	-6113
▁murderer	-6114
▁opinions	-6115
▁panicked	-6116
▁politely	-6117
▁postcard	-6118
▁postpone	-6119
▁pregnant	-6120
▁prettier	-6121
▁property	-6122
▁response	-6123
▁romantic	-6124
▁ruthless	-6125
▁screamed	-6126
▁shooting	-6127
▁software	-6128
▁specific	-6129
▁supplies	-6130
▁training	-6131
▁trousers	-6132
▁anonymous	-6133
▁celebrate	-6134
▁community	-6135
▁conscious	-6136
▁countless	-6137
▁described	-6138
▁entertain	-6139
▁exception	-6140
▁finishing	-6141
▁flattered	-6142
▁forgetful	-6143
▁influence	-6144
▁policemen	-6145
▁powerless	-6146
▁predicted	-6147
▁resilient	-6148
▁saxophone	-6149
▁searching	-6150
▁surrender	-6151
▁suspended	-6152
▁talkative	-6153
▁teenagers	-6154
▁chopsticks	-6155
▁constantly	-6156
▁devastated	-6157
▁encouraged	-6158
▁situations	-6159
▁typewriter	-6160
▁celebrating	-6161
▁communicate	-6162
▁differences	-6163
▁incompetent	-6164
▁interrupted	-6165
▁spontaneous	-6166
▁consequences	-6167
▁conservative	-6168
▁expectations	-6169
▁pronunciation	-6170
FO	-6171
ii	-6172
lc	-6173
oe	-6174
arc	-6175
awn	-6176
bid	-6177
for	-6178
fty	-6179
gen	-6180
hor	-6181
ils	-6182
ipe	-6183
ixt	-6184
mos	-6185
ray	-6186
vey	-6187
zes	-6188
▁Ap	-6189
▁Br	-6190
▁Hi	-6191
▁Te	-6192
▁ge	-6193
▁ol	-6194
four	-6195
inct	-6196
ites	-6197
load	-6198
mbol	-6199
olly	-6200
qual	-6201
resp	-6202
rise	-6203
roph	-6204
ssip	-6205
ubby	-6206
uish	-6207
ushi	-6208
▁Bel	-6209
▁Con	-6210
▁Hun	-6211
▁Mil	-6212
▁Rec	-6213
▁Win	-6214
▁Wow	-6215
▁ang	-6216
▁bug	-6217
▁dye	-6218
▁hel	-6219
▁lip	-6220
▁lux	-6221
▁oxy	-6222
▁pow	-6223
▁sir	-6224
▁sue	-6225
▁unp	-6226
,000.	-6227
ammed	-6228
atory	-6229
awaii	-6230
ctors	-6231
eness	-6232
ength	-6233
icing	-6234
ienna	-6235
inist	-6236
isted	-6237
nless	-6238
olves	-6239
ooked	-6240
oosen	-6241
rover	-6242
unted	-6243
urned	-6244
ustri	-6245
verty	-6246
▁Beat	-6247
▁Char	-6248
▁Desp	-6249
▁Fast	-6250
▁Food	-6251
▁July	-6252
▁Kobe	-6253
▁Tues	-6254
▁Wake	-6255
▁anti	-6256
▁asso	-6257
▁bowl	-6258
▁diag	-6259
▁east	-6260
▁euro	-6261
▁exec	-6262
▁frog	-6263
▁insp	-6264
▁load	-6265
▁pays	-6266
▁plot	-6267
▁port	-6268
▁rack	-6269
▁redu	-6270
▁rise	-6271
▁role	-6272
▁silk	-6273
▁slee	-6274
▁slip	-6275
▁tent	-6276
▁thri	-6277
▁tidy	-6278
▁welc	-6279
▁yard	-6280
▁zero	-6281
abouts	-6282
agious	-6283
alling	-6284
ervant	-6285
idents	-6286
prints	-6287
ronomy	-6288
rument	-6289
ulture	-6290
▁Allow	-6291
▁Asian	-6292
▁Count	-6293
▁Drive	-6294
▁Happy	-6295
▁Start	-6296
▁Yours	-6297
▁added	-6298
▁angel	-6299
▁atmos	-6300
▁barks	-6301
▁beans	-6302
▁benef	-6303
▁blast	-6304
▁bloss	-6305
▁bluff	-6306
▁brain	-6307
▁cease	-6308
▁cheat	-6309
▁deals	-6310
▁disgu	-6311
▁dolls	-6312
▁dried	-6313
▁essay	-6314
▁files	-6315
▁flows	-6316
▁leads	-6317
▁memor	-6318
▁minim	-6319
▁notes	-6320
▁picky	-6321
▁pills	-6322
▁pulse	-6323
▁puppy	-6324
▁revol	-6325
▁rifle	-6326
▁sixty	-6327
▁slice	-6328
▁spicy	-6329
▁stain	-6330
▁stays	-6331
▁sushi	-6332
▁tends	-6333
▁tower	-6334
▁trait	-6335
▁treas	-6336
▁urged	-6337
▁vague	-6338
▁wheat	-6339
▁wings	-6340
▁wiser	-6341
athetic	-6342
ometers	-6343
ousands	-6344
writing	-6345
▁Before	-6346
▁Buying	-6347
▁Change	-6348
▁Dinner	-6349
▁Hawaii	-6350
▁Honest	-6351
▁addict	-6352
▁argued	-6353
▁astute	-6354
▁backed	-6355
▁barber	-6356
▁betray	-6357
▁branch	-6358
▁brings	-6359
▁colors	-6360
▁dining	-6361
▁dislik	-6362
▁disobe	-6363
▁encour	-6364
▁enjoys	-6365
▁exting	-6366
▁fixing	-6367
▁forbid	-6368
▁gossip	-6369
▁guards	-6370
▁habits	-6371
▁heater	-6372
▁heaven	-6373
▁hunger	-6374
▁modest	-6375
▁nodded	-6376
▁orphan	-6377
▁overre	-6378
▁oxygen	-6379
▁pepper	-6380
▁planes	-6381
▁proced	-6382
▁review	-6383
▁reward	-6384
▁riding	-6385
▁rights	-6386
▁sneaky	-6387
▁sunset	-6388
▁superv	-6389
▁symbol	-6390
▁teleph	-6391
▁toothp	-6392
▁tricks	-6393
▁vacant	-6394
ickering	-6395
▁Compare	-6396
▁Correct	-6397
▁Despite	-6398
▁Doctors	-6399
▁Express	-6400
▁Respect	-6401
▁Someday	-6402
▁Tuesday	-6403
▁Whoever	-6404
▁abandon	-6405
▁affects	-6406
▁arrange	-6407
▁blinded	-6408
▁burglar	-6409
▁citizen	-6410
▁confirm	-6411
▁current	-6412
▁cutting	-6413
▁dangers	-6414
▁dresses	-6415
▁enthusi	-6416
▁examine	-6417
▁excused	-6418
▁furious	-6419
▁glanced	-6420
▁greatly	-6421
▁haunted	-6422
▁justice	-6423
▁killing	-6424
▁listens	-6425
▁located	-6426
▁manners	-6427
▁obliged	-6428
▁passion	-6429
▁poverty	-6430
▁precise	-6431
▁puzzled	-6432
▁refrain	-6433
▁schools	-6434
▁scratch	-6435
▁sending	-6436
▁showing	-6437
▁snowman	-6438
▁species	-6439
▁stepped	-6440
▁sunrise	-6441
▁talents	-6442
▁tourist	-6443
▁victims	-6444
▁warrant	-6445
fortunate	-6446
▁Business	-6447
▁affected	-6448
▁avoiding	-6449
▁chairman	-6450
▁contains	-6451
▁crawling	-6452
▁curtains	-6453
▁delicate	-6454
▁director	-6455
▁discreet	-6456
▁earliest	-6457
▁entering	-6458
▁expenses	-6459
▁forgiven	-6460
▁gorgeous	-6461
▁knitting	-6462
▁location	-6463
▁minister	-6464
▁previous	-6465
▁railroad	-6466
▁rational	-6467
▁roommate	-6468
▁spelling	-6469
▁tendency	-6470
▁thoughts	-6471
▁touching	-6472
▁treasure	-6473
▁welcomed	-6474
▁Thousands	-6475
▁allergies	-6476
▁bodyguard	-6477
▁breathing	-6478
▁collected	-6479
▁criticism	-6480
▁developed	-6481
▁disgusted	-6482
▁documents	-6483
▁guitarist	-6484
▁inherited	-6485
▁naturally	-6486
▁observant	-6487
▁otherwise	-6488
▁overslept	-6489
▁pollution	-6490
▁preaching	-6491
▁professor	-6492
▁promotion	-6493
▁shoulders	-6494
▁skeptical	-6495
▁snowstorm	-6496
▁standards	-6497
▁surprises	-6498
▁textbooks	-6499
▁toothache	-6500
▁treatment	-6501
▁whistling	-6502
▁astonished	-6503
▁atmosphere	-6504
▁babysitter	-6505
▁contagious	-6506
▁contribute	-6507
▁criticized	-6508
▁exaggerate	-6509
▁humiliated	-6510
▁increasing	-6511
▁instrument	-6512
▁irrelevant	-6513
▁literature	-6514
▁overworked	-6515
▁protection	-6516
▁reconsider	-6517
▁handwriting	-6518
▁independent	-6519
▁interpreter	-6520
▁restaurants	-6521
▁threatening	-6522
▁unfortunate	-6523
▁construction	-6524
▁organization	-6525
▁underestimate	-6526
!"	-6527
0?	-6528
ba	-6529
ij	-6530
rs	-6531
wh	-6532
bec	-6533
how	-6534
ido	-6535
lim	-6536
oed	-6537
olf	-6538
osc	-6539
put	-6540
ral	-6541
thy	-6542
ums	-6543
▁Gr	-6544
▁ID	-6545
▁Sc	-6546
agne	-6547
anes	-6548
anna	-6549
anta	-6550
bell	-6551
cely	-6552
cked	-6553
eria	-6554
erly	-6555
ials	-6556
ilos	-6557
inos	-6558
ital	-6559
mbur	-6560
okka	-6561
oops	-6562
rank	-6563
rate	-6564
rows	-6565
ural	-6566
walk	-6567
▁Att	-6568
▁Col	-6569
▁Mar	-6570
▁Mat	-6571
▁Nag	-6572
▁Out	-6573
▁Run	-6574
▁Six	-6575
▁Wed	-6576
▁aid	-6577
▁amm	-6578
▁bak	-6579
▁bul	-6580
▁bum	-6581
▁fol	-6582
▁gra	-6583
▁laz	-6584
▁lif	-6585
▁mut	-6586
▁net	-6587
▁orc	-6588
▁ove	-6589
▁pac	-6590
▁phr	-6591
▁ple	-6592
▁poo	-6593
▁rug	-6594
▁sam	-6595
▁sin	-6596
▁sip	-6597
▁ult	-6598
▁une	-6599
▁vir	-6600
abies	-6601
aging	-6602
andal	-6603
arded	-6604
bbing	-6605
eable	-6606
elled	-6607
gging	-6608
going	-6609
iches	-6610
iding	-6611
iforn	-6612
ivers	-6613
nails	-6614
oline	-6615
olite	-6616
overs	-6617
piece	-6618
pring	-6619
rogen	-6620
ublic	-6621
undry	-6622
▁Boys	-6623
▁Hope	-6624
▁Mine	-6625
▁Part	-6626
▁Pick	-6627
▁Roll	-6628
▁Send	-6629
▁Step	-6630
▁Swed	-6631
▁Work	-6632
▁abol	-6633
▁bees	-6634
▁bush	-6635
▁coal	-6636
▁cows	-6637
▁cups	-6638
▁dawn	-6639
▁drag	-6640
▁espe	-6641
▁fuel	-6642
▁fuse	-6643
▁inev	-6644
▁inex	-6645
▁intr	-6646
▁junk	-6647
▁jury	-6648
▁lets	-6649
▁lips	-6650
▁lung	-6651
▁owes	-6652
▁pets	-6653
▁rein	-6654
▁rout	-6655
▁sarc	-6656
▁sets	-6657
▁soci	-6658
▁sock	-6659
▁spir	-6660
▁tank	-6661
▁ther	-6662
▁tiss	-6663
▁unne	-6664
▁vers	-6665
▁wins	-6666
▁wolf	-6667
entive	-6668
headed	-6669
nesday	-6670
ograms	-6671
ometer	-6672
person	-6673
unched	-6674
▁Grand	-6675
▁Hokka	-6676
▁Hotel	-6677
▁Santa	-6678
▁Sleep	-6679
▁Times	-6680
▁adopt	-6681
▁autom	-6682
▁beers	-6683
▁bones	-6684
▁bowed	-6685
▁broad	-6686
▁buses	-6687
▁cases	-6688
▁civil	-6689
▁colds	-6690
▁comic	-6691
▁cooks	-6692
▁dates	-6693
▁disgr	-6694
▁dolph	-6695
▁estab	-6696
▁frequ	-6697
▁grade	-6698
▁homet	-6699
▁indic	-6700
▁labor	-6701
▁loses	-6702
▁medal	-6703
▁nause	-6704
▁owned	-6705
▁owner	-6706
▁plate	-6707
▁ruled	-6708
▁safer	-6709
▁snake	-6710
▁spect	-6711
▁spoil	-6712
▁stiff	-6713
▁swept	-6714
▁wrist	-6715
arently	-6716
ception	-6717
cessary	-6718
ifornia	-6719
ography	-6720
▁10,000	-6721
▁During	-6722
▁Health	-6723
▁Korean	-6724
▁Mexico	-6725
▁Remain	-6726
▁Remove	-6727
▁Winter	-6728
▁assure	-6729
▁attrib	-6730
▁batter	-6731
▁blonde	-6732
▁boiled	-6733
▁cellar	-6734
▁checks	-6735
▁chores	-6736
▁chubby	-6737
▁crafty	-6738
▁crimes	-6739
▁design	-6740
▁device	-6741
▁elders	-6742
▁filthy	-6743
▁gently	-6744
▁gladly	-6745
▁growth	-6746
▁hambur	-6747
▁heartb	-6748
▁heated	-6749
▁infect	-6750
▁ladder	-6751
▁locker	-6752
▁manual	-6753
▁nerves	-6754
▁phoned	-6755
▁plates	-6756
▁potato	-6757
▁pounds	-6758
▁prophe	-6759
▁recall	-6760
▁reduce	-6761
▁refund	-6762
▁resemb	-6763
▁rolled	-6764
▁rubbed	-6765
▁sewing	-6766
▁stomac	-6767
▁stones	-6768
▁stream	-6769
▁troops	-6770
▁unbear	-6771
▁upside	-6772
▁washes	-6773
▁winner	-6774
▁wooden	-6775
artender	-6776
roverted	-6777
▁Playing	-6778
▁actions	-6779
▁affairs	-6780
▁balance	-6781
▁behaved	-6782
▁blanket	-6783
▁butterf	-6784
▁catches	-6785
▁claimed	-6786
▁closing	-6787
▁created	-6788
▁crushed	-6789
▁customs	-6790
▁deepest	-6791
▁effects	-6792
▁elderly	-6793
▁envious	-6794
▁explore	-6795
▁finicky	-6796
▁flights	-6797
▁focused	-6798
▁fooling	-6799
▁install	-6800
▁laundry	-6801
▁lessons	-6802
▁lighter	-6803
▁limited	-6804
▁outcome	-6805
▁outrank	-6806
▁passing	-6807
▁picking	-6808
▁pierced	-6809
▁proverb	-6810
▁reality	-6811
▁replace	-6812
▁shining	-6813
▁spiders	-6814
▁sunburn	-6815
▁testify	-6816
▁travels	-6817
▁version	-6818
▁worries	-6819
ouncement	-6820
qualified	-6821
riculture	-6822
▁Hokkaido	-6823
▁Recently	-6824
▁Spending	-6825
▁administ	-6826
▁arriving	-6827
▁attached	-6828
▁bankrupt	-6829
▁behaving	-6830
▁bluffing	-6831
▁carrying	-6832
▁champion	-6833
▁checking	-6834
▁delivery	-6835
▁discover	-6836
▁doubtful	-6837
▁fountain	-6838
▁hometown	-6839
▁hundreds	-6840
▁impolite	-6841
▁maintain	-6842
▁mechanic	-6843
▁merciful	-6844
▁military	-6845
▁murdered	-6846
▁obsessed	-6847
▁opponent	-6848
▁overcome	-6849
▁physical	-6850
▁reserved	-6851
▁salesman	-6852
▁secretly	-6853
▁selected	-6854
▁sensible	-6855
▁separate	-6856
▁shouting	-6857
▁terrific	-6858
▁unturned	-6859
▁vocation	-6860
▁waitress	-6861
▁wandered	-6862
▁Elephants	-6863
▁Lightning	-6864
▁Saturdays	-6865
▁Wednesday	-6866
▁adventure	-6867
▁alcoholic	-6868
▁announced	-6869
▁attentive	-6870
▁attracted	-6871
▁brightest	-6872
▁champagne	-6873
▁collapsed	-6874
▁complains	-6875
▁cooperate	-6876
▁determine	-6877
▁expressed	-6878
▁immediate	-6879
▁improving	-6880
▁incorrect	-6881
▁invention	-6882
▁kilograms	-6883
▁privately	-6884
▁reception	-6885
▁relatives	-6886
▁requested	-6887
▁responded	-6888
▁seventeen	-6889
▁someplace	-6890
▁California	-6891
▁accountant	-6892
▁afterwards	-6893
▁approached	-6894
▁courageous	-6895
▁especially	-6896
▁inevitable	-6897
▁kilometers	-6898
▁microphone	-6899
▁mosquitoes	-6900
▁practicing	-6901
▁punishment	-6902
▁sandwiches	-6903
▁scientists	-6904
▁technology	-6905
▁Mathematics	-6906
▁blackmailed	-6907
▁countryside	-6908
▁earthquakes	-6909
▁frightening	-6910
▁recommended	-6911
▁unnecessary	-6912
▁announcement	-6913
▁intelligence	-6914
▁volunteering	-6915
▁communication	-6916
▁congratulated	-6917
▁international	-6918
0,	-6919
BI	-6920
af	-6921
ky	-6922
ti	-6923
00.	-6924
Not	-6925
acu	-6926
ano	-6927
asm	-6928
aus	-6929
bag	-6930
bow	-6931
box	-6932
boy	-6933
isc	-6934
mal	-6935
mel	-6936
ode	-6937
off	-6938
ogy	-6939
oop	-6940
pes	-6941
sis	-6942
son	-6943
ste	-6944
ube	-6945
▁Cr	-6946
▁Mr	-6947
▁Or	-6948
▁Ph	-6949
▁Sa	-6950
▁pi	-6951
abor	-6952
anic	-6953
assy	-6954
axed	-6955
cest	-6956
coat	-6957
food	-6958
foot	-6959
inci	-6960
irls	-6961
isor	-6962
jong	-6963
kins	-6964
lete	-6965
lley	-6966
male	-6967
mber	-6968
omic	-6969
ooze	-6970
ophy	-6971
oups	-6972
pack	-6973
reak	-6974
rous	-6975
seas	-6976
test	-6977
tles	-6978
ugar	-6979
what	-6980
▁Aug	-6981
▁Aut	-6982
▁Bea	-6983
▁Eve	-6984
▁FBI	-6985
▁Fur	-6986
▁Int	-6987
▁Med	-6988
▁Pac	-6989
▁Rom	-6990
▁Sal	-6991
▁Tex	-6992
▁Too	-6993
▁Tur	-6994
▁Yes	-6995
▁ain	-6996
▁awk	-6997
▁fab	-6998
▁fee	-6999
▁ing	-7000
▁jew	-7001
▁lid	-7002
▁mow	-7003
▁ped	-7004
▁rat	-7005
▁sed	-7006
▁sem	-7007
▁ted	-7008
▁tun	-7009
▁voy	-7010
▁vul	-7011
▁wid	-7012
aghet	-7013
appro	-7014
avery	-7015
becue	-7016
earch	-7017
fight	-7018
inate	-7019
irmed	-7020
istry	-7021
known	-7022
lying	-7023
onies	-7024
orthy	-7025
oscow	-7026
print	-7027
proof	-7028
sever	-7029
shine	-7030
teous	-7031
ucked	-7032
umbus	-7033
uries	-7034
while	-7035
▁Cath	-7036
▁City	-7037
▁Cows	-7038
▁Fish	-7039
▁Gold	-7040
▁Meet	-7041
▁Norm	-7042
▁Seen	-7043
▁Year	-7044
▁bent	-7045
▁eyeb	-7046
▁fart	-7047
▁fest	-7048
▁flaw	-7049
▁fulf	-7050
▁gang	-7051
▁guns	-7052
▁hudd	-7053
▁inha	-7054
▁pink	-7055
▁quar	-7056
▁reci	-7057
▁reck	-7058
▁reve	-7059
▁ripe	-7060
▁sake	-7061
▁scan	-7062
▁sits	-7063
▁sued	-7064
▁tear	-7065
▁tick	-7066
▁tort	-7067
▁unim	-7068
arians	-7069
esters	-7070
ground	-7071
icians	-7072
ickets	-7073
loaded	-7074
minute	-7075
napped	-7076
orable	-7077
ormous	-7078
pering	-7079
soever	-7080
worthy	-7081
▁Bible	-7082
▁Break	-7083
▁Girls	-7084
▁Going	-7085
▁Music	-7086
▁North	-7087
▁Right	-7088
▁Sugar	-7089
▁Tower	-7090
▁Trave	-7091
▁Young	-7092
▁alert	-7093
▁alleg	-7094
▁appla	-7095
▁await	-7096
▁blink	-7097
▁chest	-7098
▁chips	-7099
▁coast	-7100
▁entit	-7101
▁equip	-7102
▁euros	-7103
▁evacu	-7104
▁exhib	-7105
▁flute	-7106
▁freak	-7107
▁fussy	-7108
▁guilt	-7109
▁handc	-7110
▁mixed	-7111
▁nails	-7112
▁pairs	-7113
▁panic	-7114
▁paran	-7115
▁parks	-7116
▁recon	-7117
▁renew	-7118
▁rings	-7119
▁salty	-7120
▁score	-7121
▁scrat	-7122
▁shell	-7123
▁snack	-7124
▁squee	-7125
▁stead	-7126
▁trace	-7127
▁verge	-7128
▁votes	-7129
aghetti	-7130
amental	-7131
ificial	-7132
imately	-7133
inosaur	-7134
mission	-7135
neyland	-7136
ounding	-7137
respect	-7138
working	-7139
▁Arabic	-7140
▁August	-7141
▁Eating	-7142
▁Fasten	-7143
▁Hallow	-7144
▁Moscow	-7145
▁Nature	-7146
▁Search	-7147
▁Spring	-7148
▁active	-7149
▁amused	-7150
▁ancest	-7151
▁assert	-7152
▁bakery	-7153
▁banged	-7154
▁barked	-7155
▁blinds	-7156
▁bullet	-7157
▁carbon	-7158
▁cheeks	-7159
▁colder	-7160
▁consum	-7161
▁cookie	-7162
▁counts	-7163
▁degree	-7164
▁events	-7165
▁expose	-7166
▁female	-7167
▁forces	-7168
▁former	-7169
▁garlic	-7170
▁groups	-7171
▁helmet	-7172
▁horror	-7173
▁hypnot	-7174
▁infuri	-7175
▁injury	-7176
▁ladies	-7177
▁length	-7178
▁lovers	-7179
▁loving	-7180
▁luxury	-7181
▁mainly	-7182
▁majors	-7183
▁mostly	-7184
▁noises	-7185
▁pardon	-7186
▁parent	-7187
▁points	-7188
▁powers	-7189
▁prejud	-7190
▁proved	-7191
▁relief	-7192
▁sailor	-7193
▁sample	-7194
▁selfie	-7195
▁server	-7196
▁sheets	-7197
▁shovel	-7198
▁sleeve	-7199
▁stroke	-7200
▁territ	-7201
▁tigers	-7202
▁tissue	-7203
▁towels	-7204
▁vision	-7205
▁visits	-7206
▁volley	-7207
▁voting	-7208
▁voyage	-7209
▁wisely	-7210
▁worthy	-7211
asonable	-7212
ilosophy	-7213
ological	-7214
▁Britain	-7215
▁Contact	-7216
▁Finally	-7217
▁Finding	-7218
▁Sitting	-7219
▁Station	-7220
▁Tickets	-7221
▁alarmed	-7222
▁amusing	-7223
▁anytime	-7224
▁awkward	-7225
▁bassoon	-7226
▁cabinet	-7227
▁caution	-7228
▁charged	-7229
▁contrad	-7230
▁counted	-7231
▁dealing	-7232
▁decline	-7233
▁defense	-7234
▁deliber	-7235
▁deliver	-7236
▁desires	-7237
▁destiny	-7238
▁destroy	-7239
▁discour	-7240
▁disting	-7241
▁dolphin	-7242
▁drawing	-7243
▁farther	-7244
▁follows	-7245
▁freaked	-7246
▁grammar	-7247
▁heading	-7248
▁heavier	-7249
▁huddled	-7250
▁inappro	-7251
▁justify	-7252
▁lawyers	-7253
▁mansion	-7254
▁monster	-7255
▁muscles	-7256
▁museums	-7257
▁opposed	-7258
▁packing	-7259
▁painter	-7260
▁panting	-7261
▁praised	-7262
▁punched	-7263
▁rapidly	-7264
▁reduced	-7265
▁reflect	-7266
▁regards	-7267
▁resched	-7268
▁revenge	-7269
▁sailing	-7270
▁savings	-7271
▁seafood	-7272
▁section	-7273
▁skipped	-7274
▁slammed	-7275
▁smashed	-7276
▁smelled	-7277
▁spirits	-7278
▁tempted	-7279
▁typical	-7280
▁univers	-7281
▁violent	-7282
▁wealthy	-7283
cientious	-7284
heartedly	-7285
▁Catholic	-7286
▁Columbus	-7287
▁Congress	-7288
▁accurate	-7289
▁accusing	-7290
▁barbecue	-7291
▁barefoot	-7292
▁constant	-7293
▁declared	-7294
▁designed	-7295
▁detailed	-7296
▁disgrace	-7297
▁doorbell	-7298
▁enormous	-7299
▁examples	-7300
▁fabulous	-7301
▁forehead	-7302
▁happiest	-7303
▁identify	-7304
▁included	-7305
▁inconven	-7306
▁internet	-7307
▁launched	-7308
▁lipstick	-7309
▁messages	-7310
▁nauseous	-7311
▁normally	-7312
▁nowadays	-7313
▁numerous	-7314
▁objected	-7315
▁organize	-7316
▁overcoat	-7317
▁overlook	-7318
▁overseas	-7319
▁partners	-7320
▁pharmacy	-7321
▁prophecy	-7322
▁quitting	-7323
▁raincoat	-7324
▁relaxing	-7325
▁sacrific	-7326
▁scarcely	-7327
▁semester	-7328
▁sickness	-7329
▁somewhat	-7330
▁speakers	-7331
▁speeding	-7332
▁startled	-7333
▁sunlight	-7334
▁sunshine	-7335
▁survival	-7336
▁suspects	-7337
▁sympathy	-7338
▁transfer	-7339
▁troubled	-7340
▁watermel	-7341
▁weakness	-7342
▁Accidents	-7343
▁Halloween	-7344
▁acknowled	-7345
▁allowance	-7346
▁chemistry	-7347
▁classical	-7348
▁construct	-7349
▁contented	-7350
▁corrected	-7351
▁courteous	-7352
▁curiosity	-7353
▁discovery	-7354
▁disguised	-7355
▁disobeyed	-7356
▁flinching	-7357
▁foreigner	-7358
▁hesitated	-7359
▁imagining	-7360
▁kidnapped	-7361
▁materials	-7362
▁negotiate	-7363
▁objective	-7364
▁overheard	-7365
▁paperwork	-7366
▁passenger	-7367
▁photograp	-7368
▁procedure	-7369
▁protested	-7370
▁realistic	-7371
▁receiving	-7372
▁reluctant	-7373
▁sarcastic	-7374
▁scheduled	-7375
▁scratched	-7376
▁sentenced	-7377
▁sincerely	-7378
▁spaghetti	-7379
▁stressful	-7380
▁stretched	-7381
▁suspected	-7382
▁thousands	-7383
▁travelers	-7384
▁Disneyland	-7385
▁Everywhere	-7386
▁Washington	-7387
▁conscience	-7388
▁controlled	-7389
▁discussing	-7390
▁disrespect	-7391
▁expression	-7392
▁frequently	-7393
▁investment	-7394
▁medication	-7395
▁physically	-7396
▁pleasantly	-7397
▁principles	-7398
▁refreshing	-7399
▁speechless	-7400
▁telephoned	-7401
▁toothpaste	-7402
▁unbearable	-7403
▁volleyball	-7404
▁whatsoever	-7405
▁worthwhile	-7406
▁achievement	-7407
▁conclusions	-7408
▁fashionable	-7409
▁financially	-7410
▁frustrating	-7411
▁hospitality	-7412
▁masterpiece	-7413
▁necessarily	-7414
▁predictable	-7415
▁questioning	-7416
▁remembering	-7417
▁stomachache	-7418
▁appointments	-7419
▁dissatisfied	-7420
▁interrupting	-7421
▁negotiations	-7422
▁overreacting	-7423
▁participated	-7424
▁unbelievable	-7425
▁unreasonable	-7426
▁circumstances	-7427
▁conscientious	-7428
10	-7429
NA	-7430
ai	-7431
bl	-7432
hy	-7433
my	-7434
ni	-7435
ov	-7436
acc	-7437
bby	-7438
bul	-7439
cil	-7440
cup	-7441
eag	-7442
hel	-7443
hew	-7444
sts	-7445
udy	-7446
▁AI	-7447
▁II	-7448
▁Po	-7449
▁Ra	-7450
▁wa	-7451
abul	-7452
aine	-7453
ancy	-7454
aser	-7455
avor	-7456
back	-7457
beat	-7458
case	-7459
cher	-7460
cond	-7461
cope	-7462
ctic	-7463
eare	-7464
enda	-7465
five	-7466
fted	-7467
gypt	-7468
have	-7469
hern	-7470
hill	-7471
iant	-7472
iens	-7473
illa	-7474
itle	-7475
just	-7476
kesp	-7477
lict	-7478
lter	-7479
mers	-7480
name	-7481
nion	-7482
olar	-7483
ooks	-7484
oses	-7485
park	-7486
rily	-7487
ssed	-7488
stit	-7489
tesy	-7490
udes	-7491
umpy	-7492
well	-7493
yard	-7494
zart	-7495
▁Ant	-7496
▁Ber	-7497
▁Cor	-7498
▁DNA	-7499
▁Hil	-7500
▁Ign	-7501
▁Mem	-7502
▁Oil	-7503
▁Opp	-7504
▁Sec	-7505
▁ank	-7506
▁bol	-7507
▁coc	-7508
▁der	-7509
▁dim	-7510
▁dug	-7511
▁elb	-7512
▁emp	-7513
▁gam	-7514
▁gay	-7515
▁hyd	-7516
▁jar	-7517
▁jaw	-7518
▁jet	-7519
▁kar	-7520
▁mah	-7521
▁mam	-7522
▁pal	-7523
▁pry	-7524
▁rew	-7525
▁spr	-7526
▁tan	-7527
▁tub	-7528
▁upd	-7529
abbed	-7530
acles	-7531
allel	-7532
angle	-7533
anuts	-7534
arium	-7535
arrot	-7536
asant	-7537
ategy	-7538
athon	-7539
cksaw	-7540
cling	-7541
dream	-7542
dreds	-7543
force	-7544
fying	-7545
gment	-7546
ighed	-7547
iland	-7548
imary	-7549
kirts	-7550
lance	-7551
nical	-7552
ocrat	-7553
ortug	-7554
othes	-7555
phant	-7556
point	-7557
quate	-7558
roken	-7559
sized	-7560
toned	-7561
ugees	-7562
ungle	-7563
works	-7564
▁Comm	-7565
▁Dece	-7566
▁East	-7567
▁Fore	-7568
▁Hist	-7569
▁Lend	-7570
▁Like	-7571
▁Meat	-7572
▁Pour	-7573
▁Prep	-7574
▁Pull	-7575
▁Rain	-7576
▁Sign	-7577
▁Stir	-7578
▁Stud	-7579
▁Such	-7580
▁abst	-7581
▁ache	-7582
▁bald	-7583
▁bars	-7584
▁bene	-7585
▁bore	-7586
▁cane	-7587
▁cart	-7588
▁chap	-7589
▁chol	-7590
▁cope	-7591
▁corn	-7592
▁dial	-7593
▁dies	-7594
▁dime	-7595
▁dope	-7596
▁dove	-7597
▁dull	-7598
▁flir	-7599
▁gall	-7600
▁goat	-7601
▁hike	-7602
▁knit	-7603
▁link	-7604
▁liqu	-7605
▁mand	-7606
▁mice	-7607
▁mule	-7608
▁mult	-7609
▁nick	-7610
▁numb	-7611
▁oath	-7612
▁pess	-7613
▁pigs	-7614
▁plus	-7615
▁pork	-7616
▁pour	-7617
▁prem	-7618
▁radi	-7619
▁rage	-7620
▁rats	-7621
▁recy	-7622
▁seas	-7623
▁term	-7624
▁tone	-7625
▁tons	-7626
▁torn	-7627
▁trem	-7628
▁unam	-7629
▁urge	-7630
▁volc	-7631
▁wage	-7632
▁wink	-7633
▁worm	-7634
▁wrap	-7635
▁yach	-7636
acelet	-7637
arried	-7638
aughty	-7639
ercise	-7640
ficial	-7641
icious	-7642
icking	-7643
ieving	-7644
itches	-7645
ittens	-7646
lights	-7647
manent	-7648
ocated	-7649
ointed	-7650
onstop	-7651
oosing	-7652
orious	-7653
rictly	-7654
uished	-7655
▁Apart	-7656
▁Carry	-7657
▁Catch	-7658
▁Claus	-7659
▁Death	-7660
▁Earth	-7661
▁Egypt	-7662
▁Green	-7663
▁Langu	-7664
▁Learn	-7665
▁Party	-7666
▁Raise	-7667
▁State	-7668
▁Study	-7669
▁Taste	-7670
▁abhor	-7671
▁alley	-7672
▁analy	-7673
▁aspir	-7674
▁bless	-7675
▁blush	-7676
▁brick	-7677
▁broch	-7678
▁broom	-7679
▁cable	-7680
▁cafet	-7681
▁camer	-7682
▁chain	-7683
▁crank	-7684
▁dated	-7685
▁depos	-7686
▁disor	-7687
▁displ	-7688
▁dread	-7689
▁drops	-7690
▁empha	-7691
▁endea	-7692
▁fails	-7693
▁fairy	-7694
▁fewer	-7695
▁fishy	-7696
▁fract	-7697
▁harsh	-7698
▁heads	-7699
▁hives	-7700
▁holes	-7701
▁insan	-7702
▁kilos	-7703
▁label	-7704
▁lemon	-7705
▁liars	-7706
▁medit	-7707
▁metal	-7708
▁pages	-7709
▁rates	-7710
▁repay	-7711
▁restr	-7712
▁scrap	-7713
▁seeds	-7714
▁sheet	-7715
▁simpl	-7716
▁squir	-7717
▁sweep	-7718
▁tales	-7719
▁teles	-7720
▁therm	-7721
▁tiger	-7722
▁title	-7723
▁tries	-7724
▁twent	-7725
▁unbut	-7726
▁unfor	-7727
▁unint	-7728
▁unple	-7729
▁virus	-7730
▁waist	-7731
▁withd	-7732
acteria	-7733
ficient	-7734
irstyle	-7735
isement	-7736
iterate	-7737
olution	-7738
▁Apples	-7739
▁Charge	-7740
▁Greece	-7741
▁Hilton	-7742
▁Mozart	-7743
▁Police	-7744
▁Portug	-7745
▁Russia	-7746
▁Wouldn	-7747
▁actual	-7748
▁agenda	-7749
▁attach	-7750
▁beggar	-7751
▁biting	-7752
▁blames	-7753
▁blocks	-7754
▁blouse	-7755
▁bushes	-7756
▁calmed	-7757
▁chewed	-7758
▁convey	-7759
▁copied	-7760
▁cotton	-7761
▁crunch	-7762
▁driven	-7763
▁editor	-7764
▁equals	-7765
▁errand	-7766
▁estate	-7767
▁fellow	-7768
▁flavor	-7769
▁gamble	-7770
▁gifted	-7771
▁glance	-7772
▁golden	-7773
▁groggy	-7774
▁hourly	-7775
▁hunter	-7776
▁jungle	-7777
▁karate	-7778
▁knives	-7779
▁limits	-7780
▁melody	-7781
▁myster	-7782
▁ninety	-7783
▁obeyed	-7784
▁olives	-7785
▁owners	-7786
▁parrot	-7787
▁rebels	-7788
▁recess	-7789
▁recipe	-7790
▁replac	-7791
▁resent	-7792
▁resort	-7793
▁resume	-7794
▁richer	-7795
▁ripped	-7796
▁robots	-7797
▁sealed	-7798
▁senior	-7799
▁spider	-7800
▁starve	-7801
▁stinks	-7802
▁summit	-7803
▁thread	-7804
▁typist	-7805
▁underw	-7806
▁unique	-7807
▁waiter	-7808
▁weighs	-7809
▁wisdom	-7810
▁wished	-7811
atically	-7812
inosaurs	-7813
iversary	-7814
kespeare	-7815
ximately	-7816
▁Beatles	-7817
▁Believe	-7818
▁Channel	-7819
▁Classes	-7820
▁Driving	-7821
▁Getting	-7822
▁Honesty	-7823
▁Looking	-7824
▁Pacific	-7825
▁Science	-7826
▁Staying	-7827
▁Windows	-7828
▁angrily	-7829
▁behaves	-7830
▁bruised	-7831
▁closest	-7832
▁colleag	-7833
▁compete	-7834
▁conduct	-7835
▁costume	-7836
▁council	-7837
▁cousins	-7838
▁deceive	-7839
▁digging	-7840
▁dipping	-7841
▁discrim	-7842
▁dreamer	-7843
▁drunken	-7844
▁easiest	-7845
▁experts	-7846
▁exposed	-7847
▁figures	-7848
▁flooded	-7849
▁gaining	-7850
▁hacksaw	-7851
▁imports	-7852
▁include	-7853
▁intends	-7854
▁joining	-7855
▁leading	-7856
▁lottery	-7857
▁lowered	-7858
▁mahjong	-7859
▁measure	-7860
▁minimum	-7861
▁naughty	-7862
▁organic	-7863
▁peanuts	-7864
▁primary	-7865
▁psyched	-7866
▁railway	-7867
▁regrets	-7868
▁replied	-7869
▁scandal	-7870
▁screwed	-7871
▁senator	-7872
▁servant	-7873
▁sharpen	-7874
▁shelter	-7875
▁shortly	-7876
▁shouted	-7877
▁skating	-7878
▁spinach	-7879
▁temples	-7880
▁tightly	-7881
▁traitor	-7882
▁turtles	-7883
▁unknown	-7884
▁vanilla	-7885
cientists	-7886
▁December	-7887
▁Exercise	-7888
▁Hundreds	-7889
▁Normally	-7890
▁Nowadays	-7891
▁Olympics	-7892
▁Republic	-7893
▁Strictly	-7894
▁acquaint	-7895
▁athletic	-7896
▁backpack	-7897
▁belonged	-7898
▁bracelet	-7899
▁catching	-7900
▁choosing	-7901
▁conflict	-7902
▁courtesy	-7903
▁daydream	-7904
▁deceased	-7905
▁defeated	-7906
▁deluding	-7907
▁despised	-7908
▁despises	-7909
▁dictator	-7910
▁dislikes	-7911
▁disposal	-7912
▁elephant	-7913
▁emotions	-7914
▁employee	-7915
▁eyebrows	-7916
▁festival	-7917
▁function	-7918
▁handcuff	-7919
▁identity	-7920
▁injuries	-7921
▁magician	-7922
▁marrying	-7923
▁monument	-7924
▁narrowly	-7925
▁novelist	-7926
▁occupied	-7927
▁offering	-7928
▁official	-7929
▁overtime	-7930
▁overwhel	-7931
▁paranoid	-7932
▁pathetic	-7933
▁peaceful	-7934
▁persever	-7935
▁programs	-7936
▁proposed	-7937
▁reaction	-7938
▁reporter	-7939
▁	-7940
e	-7941
o	-7942
t	-7943
a	-7944
n	-7945
i	-7946
s	-7947
h	-7948
r	-7949
l	-7950
d	-7951
u	-7952
.	-7953
y	-7954
m	-7955
w	-7956
g	-7957
c	-7958
I	-7959
f	-7960
p	-7961
'	-7962
b	-7963
k	-7964
v	-7965
T	-7966
?	-7967
W	-7968
H	-7969
Y	-7970
,	-7971
S	-7972
D	-7973
A	-7974
M	-7975
j	-7976
x	-7977
C	-7978
q	-7979
L	-7980
P	-7981
E	-7982
N	-7983
z	-7984
F	-7985
B	-7986
G	-7987
!	-7988
O	-7989
J	-7990
0	-7991
-	-7992
K	-7993
"	-7994
1	-7995
R	-7996
