<unk>	0
<s>	0
</s>	0
▁p	-0
▁d	-1
ai	-2
ou	-3
es	-4
en	-5
▁l	-6
▁s	-7
re	-8
on	-9
▁c	-10
▁a	-11
qu	-12
er	-13
▁t	-14
▁m	-15
▁v	-16
▁J	-17
▁n	-18
▁de	-19
▁pa	-20
ous	-21
▁qu	-22
oi	-23
an	-24
▁Je	-25
ent	-26
le	-27
▁f	-28
om	-29
▁pas	-30
est	-31
ais	-32
eu	-33
▁?	-34
▁que	-35
un	-36
is	-37
▁T	-38
te	-39
our	-40
▁à	-41
▁un	-42
il	-43
▁j	-44
▁ne	-45
▁la	-46
ait	-47
▁le	-48
▁b	-49
▁r	-50
ez	-51
▁I	-52
▁Il	-53
▁ce	-54
it	-55
in	-56
ar	-57
▁Tom	-58
▁C	-59
or	-60
▁su	-61
▁en	-62
▁est	-63
us	-64
▁pr	-65
▁vous	-66
ét	-67
lle	-68
▁tr	-69
ment	-70
tre	-71
se	-72
▁ch	-73
au	-74
▁av	-75
▁L	-76
ons	-77
ant	-78
eux	-79
▁N	-80
▁E	-81
tu	-82
▁par	-83
et	-84
end	-85
ci	-86
ont	-87
av	-88
ce	-89
ti	-90
me	-91
▁pour	-92
ch	-93
onn	-94
▁au	-95
ri	-96
ll	-97
▁pl	-98
▁une	-99
▁me	-100
ouv	-101
vous	-102
aire	-103
▁te	-104
▁ét	-105
▁V	-106
mp	-107
ain	-108
▁g	-109
ien	-110
▁P	-111
▁suis	-112
▁je	-113
ée	-114
de	-115
oir	-116
tes	-117
ans	-118
ui	-119
▁les	-120
▁tou	-121
que	-122
▁dé	-123
▁h	-124
ois	-125
os	-126
▁se	-127
▁re	-128
as	-129
ag	-130
ère	-131
▁com	-132
▁tu	-133
▁faire	-134
▁Nous	-135
▁M	-136
▁Q	-137
ie	-138
▁!	-139
pp	-140
ir	-141
ue	-142
▁Tu	-143
▁Vous	-144
▁Elle	-145
res	-146
▁ê	-147
ens	-148
▁dans	-149
▁i	-150
am	-151
al	-152
▁plus	-153
▁A	-154
▁des	-155
ec	-156
▁nous	-157
▁mon	-158
at	-159
ès	-160
▁pro	-161
▁e	-162
▁fait	-163
▁du	-164
and	-165
ang	-166
▁di	-167
eur	-168
▁si	-169
ça	-170
és	-171
ble	-172
▁S	-173
▁dev	-174
▁veux	-175
▁ça	-176
ers	-177
▁vo	-178
la	-179
▁avec	-180
▁qui	-181
▁é	-182
▁ai	-183
oin	-184
ur	-185
eau	-186
rai	-187
▁quel	-188
li	-189
ille	-190
ort	-191
▁sur	-192
▁Ce	-193
si	-194
onne	-195
lé	-196
mes	-197
▁as	-198
ff	-199
▁tout	-200
iv	-201
mps	-202
▁in	-203
pr	-204
▁ré	-205
▁sont	-206
▁et	-207
▁Le	-208
▁o	-209
▁peu	-210
endre	-211
ier	-212
▁con	-213
ac	-214
▁y	-215
ose	-216
ess	-217
▁all	-218
ion	-219
ati	-220
▁Que	-221
uis	-222
ne	-223
oup	-224
▁dit	-225
▁cet	-226
ut	-227
▁D	-228
rais	-229
▁très	-230
▁vou	-231
▁son	-232
▁mais	-233
ard	-234
▁moi	-235
▁temps	-236
▁Pour	-237
▁être	-238
lles	-239
▁O	-240
ux	-241
ler	-242
▁ar	-243
quoi	-244
▁Com	-245
▁lui	-246
▁La	-247
▁Ne	-248
ense	-249
jour	-250
elle	-251
co	-252
ér	-253
▁dem	-254
▁été	-255
▁votre	-256
▁était	-257
▁vrai	-258
di	-259
▁êtes	-260
▁fr	-261
▁trav	-262
oit	-263
▁pense	-264
▁am	-265
▁peux	-266
ot	-267
▁Les	-268
age	-269
ap	-270
ve	-271
▁sais	-272
▁chose	-273
▁dis	-274
▁jam	-275
▁Es	-276
▁cette	-277
▁gr	-278
▁ser	-279
té	-280
mer	-281
▁Mar	-282
▁ici	-283
▁pens	-284
op	-285
che	-286
ter	-287
▁sa	-288
▁jamais	-289
▁cr	-290
▁es	-291
▁ma	-292
app	-293
▁il	-294
▁Ils	-295
ig	-296
▁travai	-297
▁heu	-298
oy	-299
▁bien	-300
▁cela	-301
▁app	-302
able	-303
▁pouv	-304
▁Pourquoi	-305
▁vraiment	-306
▁dire	-307
orte	-308
ol	-309
▁beau	-310
▁toi	-311
ommes	-312
▁jour	-313
aiss	-314
bl	-315
▁ex	-316
▁sav	-317
cu	-318
ière	-319
▁an	-320
▁ent	-321
ité	-322
▁quelque	-323
ête	-324
▁seu	-325
▁Qu	-326
▁ton	-327
rer	-328
out	-329
aut	-330
moi	-331
tt	-332
uit	-333
coup	-334
esoin	-335
ersonne	-336
▁besoin	-337
ré	-338
bre	-339
je	-340
▁trouv	-341
ture	-342
iez	-343
▁main	-344
▁vi	-345
▁voul	-346
▁parti	-347
▁pré	-348
ten	-349
▁beaucoup	-350
▁sommes	-351
▁avez	-352
▁tous	-353
ors	-354
lement	-355
▁mang	-356
▁jus	-357
▁mar	-358
▁ont	-359
▁Comment	-360
▁sem	-361
ner	-362
être	-363
▁avons	-364
une	-365
▁voi	-366
▁là	-367
▁Ç	-368
▁Ça	-369
▁train	-370
▁rest	-371
▁mal	-372
▁aller	-373
▁peut	-374
▁parler	-375
ées	-376
ême	-377
▁maison	-378
▁Mary	-379
em	-380
▁Est	-381
▁fer	-382
ation	-383
gent	-384
der	-385
ay	-386
▁va	-387
ance	-388
aî	-389
▁pass	-390
jours	-391
▁toujours	-392
ab	-393
riv	-394
▁per	-395
enc	-396
▁voir	-397
▁trop	-398
était	-399
▁heure	-400
▁rien	-401
▁ven	-402
oire	-403
aime	-404
▁nouv	-405
ils	-406
ette	-407
▁ass	-408
ure	-409
▁ca	-410
▁deux	-411
ivre	-412
rait	-413
▁déj	-414
▁R	-415
▁mes	-416
ussi	-417
ine	-418
▁comp	-419
▁quoi	-420
▁att	-421
core	-422
▁bon	-423
▁monde	-424
orm	-425
▁encore	-426
ôt	-427
ants	-428
dre	-429
▁On	-430
les	-431
ions	-432
cher	-433
▁enf	-434
▁cont	-435
▁soit	-436
▁comme	-437
aine	-438
ass	-439
ends	-440
air	-441
▁fais	-442
▁ta	-443
ence	-444
▁quelqu	-445
▁Elles	-446
▁conn	-447
▁demand	-448
iens	-449
ge	-450
▁comm	-451
ante	-452
merais	-453
▁der	-454
▁Quel	-455
▁li	-456
▁faut	-457
ord	-458
▁Mon	-459
▁voiture	-460
ert	-461
▁avoir	-462
étais	-463
lez	-464
esp	-465
tenant	-466
▁cour	-467
▁fois	-468
▁pos	-469
éri	-470
▁éc	-471
tr	-472
▁dois	-473
▁imp	-474
▁Où	-475
aient	-476
▁rép	-477
otre	-478
▁vais	-479
ad	-480
▁B	-481
riez	-482
bien	-483
aimerais	-484
argent	-485
bli	-486
▁avait	-487
▁U	-488
▁Tout	-489
ande	-490
▁ou	-491
▁sû	-492
▁vu	-493
▁travail	-494
ici	-495
erre	-496
▁ac	-497
use	-498
pos	-499
▁diff	-500
▁eu	-501
▁aussi	-502
ite	-503
éc	-504
▁vie	-505
▁maintenant	-506
▁Av	-507
ents	-508
▁donn	-509
hui	-510
▁pet	-511
endu	-512
ème	-513
près	-514
▁ses	-515
▁arriv	-516
cup	-517
▁sou	-518
▁compr	-519
omme	-520
ign	-521
ra	-522
▁dés	-523
jourd	-524
▁fran	-525
tement	-526
all	-527
▁nom	-528
▁pi	-529
▁Qui	-530
aît	-531
▁où	-532
çais	-533
▁té	-534
▁reg	-535
▁Si	-536
▁dern	-537
▁ceci	-538
▁probl	-539
ccup	-540
chet	-541
▁jou	-542
▁juste	-543
um	-544
▁As	-545
▁français	-546
▁aut	-547
▁F	-548
▁personne	-549
essay	-550
▁même	-551
▁laiss	-552
ong	-553
▁porte	-554
▁ret	-555
▁chez	-556
▁pris	-557
▁télé	-558
▁mi	-559
rive	-560
▁ple	-561
▁fin	-562
avez	-563
▁veu	-564
▁part	-565
▁seul	-566
ente	-567
asse	-568
ore	-569
ique	-570
▁livre	-571
▁père	-572
▁man	-573
▁aujourd	-574
▁grand	-575
▁déjà	-576
par	-577
▁hier	-578
ise	-579
▁br	-580
née	-581
▁Avez	-582
▁pensais	-583
▁souv	-584
▁dét	-585
avais	-586
▁prendre	-587
dé	-588
mé	-589
▁soir	-590
▁assez	-591
▁bonne	-592
rit	-593
cole	-594
▁toutes	-595
▁manger	-596
▁Ê	-597
▁À	-598
nous	-599
▁simp	-600
▁trois	-601
▁mieux	-602
gu	-603
cti	-604
▁Êtes	-605
▁mat	-606
elles	-607
▁bl	-608
▁problème	-609
ud	-610
are	-611
ex	-612
▁quand	-613
▁quest	-614
êt	-615
▁Personne	-616
du	-617
▁plaît	-618
ven	-619
▁Cette	-620
auv	-621
▁sans	-622
êtes	-623
▁long	-624
▁achet	-625
▁demain	-626
▁dû	-627
▁fa	-628
▁pu	-629
rang	-630
▁sent	-631
▁Combien	-632
▁avant	-633
oyez	-634
▁ces	-635
anc	-636
▁occup	-637
gn	-638
▁cl	-639
▁pay	-640
▁gens	-641
▁cons	-642
▁déc	-643
▁supp	-644
▁renc	-645
▁savoir	-646
▁mé	-647
▁cha	-648
▁env	-649
ient	-650
▁devrais	-651
▁elle	-652
aux	-653
▁vis	-654
dée	-655
▁heures	-656
rent	-657
▁sens	-658
▁co	-659
▁aux	-660
▁bou	-661
▁fut	-662
▁Ma	-663
▁mom	-664
▁enfants	-665
rez	-666
▁après	-667
inu	-668
▁Marie	-669
fi	-670
▁regard	-671
arrive	-672
▁moment	-673
▁Cela	-674
▁partir	-675
att	-676
▁emp	-677
▁toute	-678
ide	-679
jet	-680
▁sor	-681
▁ami	-682
▁ph	-683
école	-684
▁répon	-685
▁simplement	-686
omb	-687
itu	-688
eurs	-689
im	-690
▁sûr	-691
avant	-692
▁petit	-693
ph	-694
con	-695
▁Puis	-696
▁nuit	-697
leur	-698
oses	-699
▁gar	-700
▁notre	-701
œur	-702
▁travaill	-703
▁En	-704
▁appr	-705
ton	-706
▁essay	-707
ins	-708
▁ans	-709
▁nouveau	-710
erai	-711
autre	-712
▁comment	-713
▁coup	-714
▁chien	-715
▁Un	-716
▁puis	-717
▁auc	-718
▁mère	-719
▁sorti	-720
ill	-721
▁jeu	-722
▁rais	-723
acc	-724
▁fem	-725
▁tes	-726
oc	-727
▁pouvez	-728
llement	-729
▁ab	-730
réci	-731
▁dernière	-732
▁quelques	-733
rem	-734
▁De	-735
aisse	-736
▁passé	-737
▁pourquoi	-738
puis	-739
oute	-740
▁rend	-741
én	-742
ager	-743
▁vos	-744
ress	-745
▁venir	-746
▁choses	-747
▁voulais	-748
id	-749
ché	-750
ob	-751
iste	-752
oston	-753
endant	-754
▁Boston	-755
▁chang	-756
aider	-757
▁po	-758
èrent	-759
▁cond	-760
▁veut	-761
ist	-762
int	-763
ul	-764
▁fil	-765
▁prom	-766
▁ense	-767
▁ad	-768
euse	-769
▁heureux	-770
▁dép	-771
▁moin	-772
▁croire	-773
▁rester	-774
▁parle	-775
▁idée	-776
▁cher	-777
ade	-778
eure	-779
▁semble	-780
▁rapp	-781
▁tôt	-782
▁jours	-783
erm	-784
▁rés	-785
▁lors	-786
▁sait	-787
lais	-788
▁tomb	-789
▁mauv	-790
▁mauvais	-791
este	-792
▁ri	-793
avoir	-794
▁prés	-795
▁rendre	-796
rê	-797
icile	-798
▁trouver	-799
▁préf	-800
temps	-801
omp	-802
uv	-803
▁peur	-804
espère	-805
ettre	-806
▁raison	-807
▁demandé	-808
▁É	-809
▁voy	-810
lo	-811
phon	-812
▁cham	-813
▁entendu	-814
lui	-815
▁voulez	-816
▁prof	-817
apon	-818
▁fille	-819
▁piè	-820
▁fort	-821
udi	-822
aurais	-823
▁semaine	-824
tion	-825
▁prem	-826
▁difficile	-827
enir	-828
▁rec	-829
ention	-830
▁matin	-831
▁rem	-832
enez	-833
▁mari	-834
▁Quand	-835
▁seule	-836
▁exp	-837
▁meille	-838
▁aider	-839
▁Quelle	-840
▁proch	-841
▁conse	-842
el	-843
uire	-844
▁Vou	-845
cid	-846
qué	-847
çon	-848
▁im	-849
ques	-850
▁aff	-851
▁fati	-852
▁autre	-853
qui	-854
▁phot	-855
▁chambre	-856
▁amis	-857
▁pendant	-858
▁téléphon	-859
imp	-860
roit	-861
▁poin	-862
▁parents	-863
▁prie	-864
▁fatigu	-865
▁depuis	-866
▁mot	-867
téress	-868
▁femme	-869
▁homme	-870
ale	-871
olé	-872
▁car	-873
▁souvent	-874
▁hab	-875
rions	-876
▁disc	-877
ver	-878
▁Y	-879
euner	-880
▁ouv	-881
▁non	-882
▁Pouv	-883
▁port	-884
iss	-885
oid	-886
▁Pr	-887
pe	-888
esse	-889
▁che	-890
▁lire	-891
▁savais	-892
▁tard	-893
onc	-894
entre	-895
▁voud	-896
▁cou	-897
▁question	-898
▁mort	-899
quer	-900
▁vér	-901
▁sera	-902
illez	-903
▁fête	-904
▁sœur	-905
▁jusqu	-906
▁rev	-907
▁étudi	-908
heure	-909
▁dorm	-910
▁mont	-911
▁surpr	-912
ments	-913
onnes	-914
▁leur	-915
▁montre	-916
▁gag	-917
▁crois	-918
▁rencont	-919
▁ment	-920
▁gros	-921
▁nombre	-922
ond	-923
▁retard	-924
lè	-925
▁lit	-926
▁propos	-927
uses	-928
▁quelle	-929
▁pe	-930
▁dou	-931
▁pièce	-932
▁intéress	-933
▁arrivé	-934
▁commenc	-935
mi	-936
▁vé	-937
ères	-938
▁fam	-939
▁for	-940
aires	-941
▁passe	-942
▁pourrait	-943
ats	-944
▁dur	-945
iné	-946
▁perdu	-947
▁pouvons	-948
ition	-949
▁cert	-950
▁point	-951
ets	-952
▁end	-953
util	-954
▁pers	-955
erreur	-956
bles	-957
▁longtemps	-958
ic	-959
▁trouvé	-960
uss	-961
llez	-962
▁caf	-963
▁vois	-964
alement	-965
▁jouer	-966
mble	-967
vent	-968
ienne	-969
▁minu	-970
▁moins	-971
▁acheté	-972
▁sois	-973
vé	-974
▁pres	-975
▁chant	-976
▁sujet	-977
▁nouvelle	-978
ace	-979
▁faci	-980
cre	-981
▁Une	-982
▁bless	-983
▁étaient	-984
erci	-985
aim	-986
▁ob	-987
▁chem	-988
accord	-989
▁frère	-990
▁nour	-991
▁travailler	-992
aie	-993
▁dont	-994
▁table	-995
▁eff	-996
if	-997
▁café	-998
▁ville	-999
▁téléphone	-1000
▁fi	-1001
▁demande	-1002
hab	-1003
▁Au	-1004
avantage	-1005
iser	-1006
onné	-1007
▁ref	-1008
ision	-1009
▁doit	-1010
▁Pouvez	-1011
▁al	-1012
sion	-1013
▁ann	-1014
mb	-1015
né	-1016
▁mis	-1017
illes	-1018
▁allé	-1019
▁soyez	-1020
▁sortir	-1021
▁davantage	-1022
ro	-1023
▁cor	-1024
ate	-1025
▁Par	-1026
▁Son	-1027
▁liv	-1028
▁aime	-1029
appréci	-1030
▁ins	-1031
▁conv	-1032
▁resp	-1033
▁journée	-1034
▁acc	-1035
▁chev	-1036
▁presque	-1037
sible	-1038
▁photo	-1039
▁grande	-1040
▁Re	-1041
▁arrê	-1042
▁prêt	-1043
▁pensé	-1044
▁Pens	-1045
gé	-1046
isé	-1047
▁poli	-1048
▁passer	-1049
cep	-1050
ches	-1051
▁mus	-1052
mis	-1053
▁erreur	-1054
▁faites	-1055
▁vérité	-1056
arde	-1057
ttre	-1058
▁lettre	-1059
avons	-1060
istoire	-1061
▁â	-1062
▁chau	-1063
▁prod	-1064
▁connais	-1065
▁tellement	-1066
illé	-1067
▁déb	-1068
▁devons	-1069
▁Peux	-1070
tte	-1071
▁appe	-1072
▁rent	-1073
là	-1074
▁voulait	-1075
toi	-1076
▁Veu	-1077
▁ten	-1078
▁venu	-1079
▁trouve	-1080
▁déjeuner	-1081
iner	-1082
▁bure	-1083
▁parf	-1084
aissez	-1085
▁devriez	-1086
rête	-1087
▁livres	-1088
▁famille	-1089
▁Ar	-1090
▁bureau	-1091
▁retour	-1092
▁Veuillez	-1093
▁fu	-1094
même	-1095
▁jeune	-1096
▁mag	-1097
ct	-1098
rire	-1099
▁exc	-1100
▁oubli	-1101
▁petite	-1102
nes	-1103
▁prop	-1104
▁différ	-1105
▁vit	-1106
▁bus	-1107
▁cap	-1108
▁devoir	-1109
▁bi	-1110
▁col	-1111
rass	-1112
emp	-1113
▁feu	-1114
▁import	-1115
▁aide	-1116
▁term	-1117
▁pouvoir	-1118
▁meilleur	-1119
ég	-1120
▁Dis	-1121
▁film	-1122
▁prob	-1123
cident	-1124
hé	-1125
▁conc	-1126
▁donné	-1127
▁étais	-1128
▁déci	-1129
▁sûre	-1130
▁entre	-1131
▁occupé	-1132
▁combien	-1133
▁H	-1134
ole	-1135
▁ép	-1136
▁st	-1137
▁confi	-1138
▁désolé	-1139
▁fini	-1140
ignore	-1141
▁étiez	-1142
▁dix	-1143
▁cuis	-1144
▁partie	-1145
▁inv	-1146
▁viv	-1147
▁disp	-1148
▁tour	-1149
conque	-1150
▁dispos	-1151
▁1	-1152
cin	-1153
▁contr	-1154
aide	-1155
▁donner	-1156
▁Peu	-1157
adore	-1158
▁chaque	-1159
▁malade	-1160
loi	-1161
▁méde	-1162
▁devez	-1163
▁aucune	-1164
▁enfant	-1165
▁devrait	-1166
▁probable	-1167
omm	-1168
▁on	-1169
ains	-1170
aller	-1171
▁lorsque	-1172
riture	-1173
▁Japon	-1174
▁rou	-1175
▁vin	-1176
▁éch	-1177
▁conf	-1178
▁réun	-1179
▁demander	-1180
▁fils	-1181
▁quit	-1182
▁util	-1183
▁viens	-1184
été	-1185
onner	-1186
▁exac	-1187
▁lang	-1188
▁heureuse	-1189
aite	-1190
reux	-1191
▁inc	-1192
▁serait	-1193
▁présent	-1194
▁voudrais	-1195
▁tête	-1196
▁nager	-1197
▁facile	-1198
rap	-1199
▁Ch	-1200
▁vite	-1201
lot	-1202
ues	-1203
▁colère	-1204
▁laisser	-1205
▁vue	-1206
▁chat	-1207
▁prend	-1208
▁vivre	-1209
▁déteste	-1210
ied	-1211
éré	-1212
▁aucun	-1213
▁réunion	-1214
▁devrions	-1215
▁comprendre	-1216
▁dî	-1217
▁mangé	-1218
▁personnes	-1219
▁seulement	-1220
▁travaille	-1221
ses	-1222
▁Fais	-1223
▁froid	-1224
▁Voulez	-1225
▁questions	-1226
▁sp	-1227
▁dir	-1228
▁pri	-1229
▁plais	-1230
ateur	-1231
▁mois	-1232
▁Merci	-1233
▁nourriture	-1234
▁vas	-1235
▁prud	-1236
▁sous	-1237
▁Sa	-1238
▁lun	-1239
▁dang	-1240
▁écrit	-1241
▁mettre	-1242
▁étrang	-1243
ontre	-1244
▁pays	-1245
ger	-1246
▁gent	-1247
▁senti	-1248
▁ain	-1249
itude	-1250
▁Veux	-1251
▁garçon	-1252
▁ensemble	-1253
▁rê	-1254
▁Arrête	-1255
rir	-1256
▁gu	-1257
▁amus	-1258
▁envie	-1259
▁chance	-1260
▁fatigué	-1261
ire	-1262
ures	-1263
ras	-1264
▁mo	-1265
ivers	-1266
▁gard	-1267
▁plan	-1268
▁vieux	-1269
▁autant	-1270
▁ferais	-1271
▁serais	-1272
▁confiance	-1273
âte	-1274
▁compte	-1275
▁comprends	-1276
çu	-1277
▁Ai	-1278
▁thé	-1279
▁ainsi	-1280
▁laissé	-1281
▁manière	-1282
▁emb	-1283
▁fen	-1284
▁souh	-1285
▁premier	-1286
▁réponse	-1287
▁pourrais	-1288
iter	-1289
rant	-1290
ances	-1291
▁belle	-1292
▁rencontre	-1293
rière	-1294
▁près	-1295
▁prév	-1296
▁serv	-1297
▁yeux	-1298
▁celui	-1299
▁discut	-1300
▁voyage	-1301
ites	-1302
▁autres	-1303
▁regarder	-1304
▁cô	-1305
atis	-1306
▁amie	-1307
▁vélo	-1308
ientôt	-1309
▁reconn	-1310
▁conduire	-1311
▁rap	-1312
▁vol	-1313
▁dormir	-1314
ép	-1315
nis	-1316
▁ag	-1317
▁exactement	-1318
erv	-1319
▁cin	-1320
▁contre	-1321
▁médecin	-1322
▁fon	-1323
▁souci	-1324
▁rapide	-1325
▁dernier	-1326
▁sol	-1327
▁chans	-1328
▁vient	-1329
▁minutes	-1330
▁possible	-1331
▁boire	-1332
▁oublié	-1333
▁coû	-1334
▁fou	-1335
orter	-1336
ations	-1337
▁place	-1338
▁serai	-1339
▁Quelqu	-1340
▁chemin	-1341
▁ég	-1342
▁gen	-1343
▁suff	-1344
▁mange	-1345
▁arriver	-1346
▁suppose	-1347
▁travers	-1348
▁inf	-1349
▁bois	-1350
▁journ	-1351
▁boulot	-1352
▁profess	-1353
olée	-1354
▁séri	-1355
▁essayé	-1356
apprécie	-1357
▁acheter	-1358
▁bientôt	-1359
aise	-1360
midi	-1361
ordin	-1362
▁mour	-1363
▁étud	-1364
▁alors	-1365
anglais	-1366
▁Laisse	-1367
▁penser	-1368
oix	-1369
arer	-1370
oyer	-1371
urer	-1372
ouver	-1373
ète	-1374
glais	-1375
▁reste	-1376
▁probablement	-1377
rou	-1378
▁Reg	-1379
▁abs	-1380
▁nos	-1381
▁rep	-1382
▁sau	-1383
▁pouvais	-1384
▁sé	-1385
▁ver	-1386
▁tant	-1387
▁police	-1388
▁endroit	-1389
tez	-1390
▁fau	-1391
anche	-1392
▁plut	-1393
▁prix	-1394
attend	-1395
▁conseil	-1396
uy	-1397
ages	-1398
agne	-1399
tant	-1400
▁gare	-1401
▁sour	-1402
▁plait	-1403
anté	-1404
aines	-1405
▁lieu	-1406
▁pied	-1407
▁connaiss	-1408
▁prochaine	-1409
iend	-1410
ours	-1411
exp	-1412
▁ra	-1413
venu	-1414
resse	-1415
▁côté	-1416
▁dîner	-1417
▁loin	-1418
▁chanter	-1419
▁dérang	-1420
cé	-1421
▁appar	-1422
▁attendre	-1423
▁gén	-1424
▁Votre	-1425
▁anglais	-1426
▁Tous	-1427
▁assis	-1428
▁parlé	-1429
▁plutôt	-1430
▁attention	-1431
▁professeur	-1432
appe	-1433
iers	-1434
▁esp	-1435
▁Peut	-1436
▁puisse	-1437
dit	-1438
rée	-1439
ume	-1440
hors	-1441
lent	-1442
▁réf	-1443
▁w	-1444
tenir	-1445
amment	-1446
atisf	-1447
▁chaud	-1448
lic	-1449
iller	-1450
importe	-1451
▁dehors	-1452
▁musique	-1453
hô	-1454
▁Mes	-1455
homme	-1456
êcher	-1457
▁marcher	-1458
▁rencontré	-1459
aille	-1460
▁verre	-1461
▁fenêtre	-1462
▁peuvent	-1463
be	-1464
▁dites	-1465
▁satisf	-1466
paravant	-1467
▁cheveux	-1468
▁Pourrais	-1469
èg	-1470
pit	-1471
▁lu	-1472
médi	-1473
aites	-1474
▁foncti	-1475
▁produit	-1476
▁Ét	-1477
▁sal	-1478
▁genre	-1479
avait	-1480
urité	-1481
▁sign	-1482
▁vers	-1483
▁argent	-1484
▁Laissez	-1485
ts	-1486
éb	-1487
cle	-1488
son	-1489
▁leurs	-1490
▁allons	-1491
▁appris	-1492
ves	-1493
ités	-1494
▁visite	-1495
▁désolée	-1496
▁pouvait	-1497
▁surpris	-1498
▁auparavant	-1499
▁do	-1500
▁âge	-1501
▁faim	-1502
▁viend	-1503
▁immédi	-1504
▁prochain	-1505
cc	-1506
▁dr	-1507
▁ty	-1508
▁App	-1509
▁stu	-1510
▁deven	-1511
▁penses	-1512
▁content	-1513
▁entendre	-1514
çons	-1515
▁séc	-1516
ettes	-1517
▁neig	-1518
▁télév	-1519
▁décidé	-1520
▁continu	-1521
▁première	-1522
▁we	-1523
▁Ces	-1524
occup	-1525
▁réve	-1526
▁payer	-1527
▁essayer	-1528
▁rencontrer	-1529
▁sac	-1530
▁joue	-1531
▁stup	-1532
▁journal	-1533
▁important	-1534
user	-1535
▁cinq	-1536
▁suiv	-1537
▁cours	-1538
▁devoirs	-1539
atement	-1540
▁écrire	-1541
▁convain	-1542
▁répondre	-1543
▁mer	-1544
irent	-1545
▁dess	-1546
▁parc	-1547
▁Notre	-1548
▁étions	-1549
▁occupée	-1550
▁Pourriez	-1551
per	-1552
éro	-1553
▁cal	-1554
▁néc	-1555
▁off	-1556
urent	-1557
▁obli	-1558
▁choix	-1559
▁pensez	-1560
▁enseign	-1561
▁immédiatement	-1562
▁ba	-1563
▁or	-1564
▁cri	-1565
▁enn	-1566
▁apprendre	-1567
▁nouvelles	-1568
▁chauss	-1569
▁suffis	-1570
▁histoire	-1571
▁sécurité	-1572
usé	-1573
▁op	-1574
quel	-1575
ustr	-1576
▁ter	-1577
ction	-1578
▁vont	-1579
▁appréci	-1580
tel	-1581
alie	-1582
▁cop	-1583
▁repr	-1584
▁mains	-1585
▁chanson	-1586
obe	-1587
ôle	-1588
quipe	-1589
▁bout	-1590
▁certaine	-1591
èmes	-1592
▁moy	-1593
▁soi	-1594
▁magas	-1595
oî	-1596
env	-1597
ature	-1598
▁secre	-1599
▁nécess	-1600
▁discuter	-1601
téri	-1602
venir	-1603
▁Voud	-1604
▁japon	-1605
▁arrêté	-1606
▁gagner	-1607
▁changer	-1608
▁nombreux	-1609
og	-1610
agit	-1611
▁Att	-1612
▁règ	-1613
▁appelé	-1614
▁classe	-1615
▁savait	-1616
oû	-1617
inc	-1618
amen	-1619
▁Ess	-1620
▁mil	-1621
leurs	-1622
▁situ	-1623
▁attend	-1624
▁vouloir	-1625
bas	-1626
ing	-1627
▁lum	-1628
▁pois	-1629
▁arrive	-1630
▁emploi	-1631
▁langue	-1632
▁voulons	-1633
▁télévision	-1634
cul	-1635
nent	-1636
▁parce	-1637
▁santé	-1638
▁tomber	-1639
habitude	-1640
dio	-1641
rêt	-1642
▁fall	-1643
▁fier	-1644
▁tent	-1645
▁fumer	-1646
▁perdre	-1647
▁derrière	-1648
cier	-1649
▁pap	-1650
▁chap	-1651
▁peine	-1652
agé	-1653
oyé	-1654
▁fit	-1655
▁amou	-1656
▁pleuv	-1657
▁savez	-1658
▁propre	-1659
▁restau	-1660
▁rentrer	-1661
uie	-1662
léch	-1663
▁béb	-1664
▁ils	-1665
année	-1666
▁Sais	-1667
▁sauv	-1668
▁soin	-1669
quelle	-1670
▁chaussures	-1671
fs	-1672
let	-1673
part	-1674
▁vac	-1675
▁char	-1676
▁allez	-1677
▁attrap	-1678
▁œ	-1679
enf	-1680
▁fo	-1681
▁sy	-1682
▁clé	-1683
arriv	-1684
ement	-1685
▁cade	-1686
▁cass	-1687
▁temp	-1688
▁tort	-1689
▁revoir	-1690
▁décision	-1691
▁boî	-1692
outer	-1693
âteau	-1694
▁plein	-1695
▁sorte	-1696
▁devenir	-1697
▁commencer	-1698
▁cé	-1699
▁cas	-1700
▁dim	-1701
▁mor	-1702
▁num	-1703
▁plu	-1704
▁cœur	-1705
▁Savez	-1706
▁cause	-1707
▁chois	-1708
▁suppos	-1709
▁problèmes	-1710
ek	-1711
lus	-1712
atre	-1713
chez	-1714
llar	-1715
rons	-1716
▁Voi	-1717
▁can	-1718
▁week	-1719
▁accep	-1720
▁elles	-1721
▁Penses	-1722
▁complè	-1723
▁dollar	-1724
▁chapeau	-1725
ok	-1726
iti	-1727
▁ju	-1728
ible	-1729
oise	-1730
▁secret	-1731
▁respons	-1732
▁mauvaise	-1733
▁vacances	-1734
▁rapidement	-1735
ls	-1736
ies	-1737
âmes	-1738
▁fus	-1739
antes	-1740
▁resse	-1741
▁sembl	-1742
▁commencé	-1743
▁utiliser	-1744
tell	-1745
▁pan	-1746
pital	-1747
ressi	-1748
▁parv	-1749
▁Donne	-1750
▁avais	-1751
onnaire	-1752
▁garder	-1753
▁montrer	-1754
▁étudier	-1755
cha	-1756
ect	-1757
aître	-1758
ettez	-1759
▁commence	-1760
ari	-1761
run	-1762
▁év	-1763
tient	-1764
▁bébé	-1765
▁autor	-1766
▁bruit	-1767
▁fasse	-1768
▁riche	-1769
▁Pensez	-1770
▁numéro	-1771
▁projet	-1772
ustralie	-1773
▁magasin	-1774
hè	-1775
oci	-1776
▁aurait	-1777
▁terminé	-1778
▁chercher	-1779
▁nécessaire	-1780
uc	-1781
▁ir	-1782
bres	-1783
érer	-1784
tellig	-1785
▁complètement	-1786
ze	-1787
rés	-1788
▁dist	-1789
▁robe	-1790
▁ferai	-1791
▁libre	-1792
▁rouge	-1793
▁somme	-1794
▁Faites	-1795
▁laisse	-1796
▁trente	-1797
▁stupide	-1798
▁rappelle	-1799
▁souviens	-1800
ecti	-1801
ises	-1802
oudre	-1803
▁lait	-1804
▁perd	-1805
▁ress	-1806
▁ordin	-1807
▁route	-1808
▁blessé	-1809
▁restaurant	-1810
itue	-1811
▁sug	-1812
▁éle	-1813
ables	-1814
▁four	-1815
▁reçu	-1816
▁Dites	-1817
▁permis	-1818
▁tennis	-1819
accident	-1820
▁affaire	-1821
▁dollars	-1822
▁plaisir	-1823
▁affaires	-1824
ces	-1825
uite	-1826
▁ris	-1827
onnez	-1828
▁cent	-1829
▁font	-1830
▁Comme	-1831
▁droit	-1832
▁poser	-1833
térieur	-1834
▁situation	-1835
ensé	-1836
igne	-1837
▁Ton	-1838
▁bras	-1839
▁boîte	-1840
▁poste	-1841
▁tromp	-1842
▁guerre	-1843
▁préfère	-1844
oupe	-1845
▁Cet	-1846
▁bat	-1847
▁rac	-1848
indre	-1849
▁finir	-1850
▁servi	-1851
▁dispose	-1852
▁réfléch	-1853
▁veulent	-1854
▁résoudre	-1855
ma	-1856
▁ait	-1857
▁rue	-1858
alité	-1859
▁sort	-1860
▁Soyez	-1861
▁bière	-1862
▁neige	-1863
▁rappe	-1864
▁arrêter	-1865
zar	-1866
▁rom	-1867
rêter	-1868
▁celle	-1869
▁façon	-1870
▁frapp	-1871
▁changé	-1872
▁intellig	-1873
ball	-1874
blie	-1875
othè	-1876
▁déf	-1877
▁aimé	-1878
▁jard	-1879
▁dicti	-1880
▁voulu	-1881
▁prends	-1882
▁rendu	-1883
arrêter	-1884
▁lorsqu	-1885
▁pleurer	-1886
intention	-1887
appr	-1888
▁ban	-1889
▁six	-1890
▁consci	-1891
▁faisait	-1892
▁rapport	-1893
iversaire	-1894
▁laquelle	-1895
▁All	-1896
▁aim	-1897
▁prê	-1898
oleil	-1899
▁rire	-1900
ormais	-1901
▁dange	-1902
▁menti	-1903
▁plain	-1904
▁cadeau	-1905
00	-1906
ouss	-1907
▁Des	-1908
▁val	-1909
cheter	-1910
raient	-1911
▁commen	-1912
▁découv	-1913
▁entrer	-1914
▁marché	-1915
▁quatre	-1916
▁nombreuses	-1917
ène	-1918
▁rav	-1919
▁donc	-1920
▁nett	-1921
▁noir	-1922
▁pian	-1923
▁reti	-1924
▁type	-1925
rasser	-1926
▁mante	-1927
▁filles	-1928
▁jardin	-1929
▁mourir	-1930
▁différent	-1931
▁dictionnaire	-1932
agn	-1933
gne	-1934
▁effr	-1935
étrang	-1936
▁année	-1937
▁prête	-1938
▁terre	-1939
▁furent	-1940
gée	-1941
lat	-1942
▁ni	-1943
▁nu	-1944
▁riv	-1945
▁expli	-1946
▁plage	-1947
histoire	-1948
uvre	-1949
▁pol	-1950
▁Lors	-1951
▁vête	-1952
lation	-1953
▁publi	-1954
▁remar	-1955
▁souff	-1956
▁tasse	-1957
▁devant	-1958
▁gâteau	-1959
▁prudent	-1960
▁dimanche	-1961
iel	-1962
▁Auc	-1963
cieux	-1964
▁ceux	-1965
▁bibli	-1966
▁remer	-1967
▁hommes	-1968
▁manteau	-1969
▁quiconque	-1970
▁étudiants	-1971
▁suffisamment	-1972
jou	-1973
siez	-1974
teur	-1975
oyons	-1976
tique	-1977
▁Rien	-1978
▁rêve	-1979
▁sugg	-1980
▁inter	-1981
▁lundi	-1982
▁emprun	-1983
▁mesure	-1984
▁réussi	-1985
▁soleil	-1986
▁cuisine	-1987
▁lumière	-1988
▁vieille	-1989
▁japonais	-1990
▁bibliothè	-1991
gt	-1992
od	-1993
era	-1994
▁No	-1995
tron	-1996
▁hor	-1997
ident	-1998
▁mots	-1999
▁amies	-2000
▁Prends	-2001
▁porter	-2002
▁promen	-2003
▁moindre	-2004
▁désormais	-2005
▁reconnaiss	-2006
emb	-2007
ieu	-2008
iré	-2009
ève	-2010
ague	-2011
▁eux	-2012
ieurs	-2013
illée	-2014
▁prin	-2015
▁liste	-2016
entendre	-2017
▁connaît	-2018
▁accident	-2019
▁vêtements	-2020
olu	-2021
méri	-2022
oids	-2023
orté	-2024
▁mit	-2025
▁sil	-2026
▁imag	-2027
▁vaut	-2028
▁prépar	-2029
▁surprise	-2030
▁bibliothèque	-2031
gr	-2032
ayez	-2033
outes	-2034
▁Cert	-2035
▁bate	-2036
▁trad	-2037
▁truc	-2038
▁Après	-2039
▁Prenez	-2040
▁femmes	-2041
▁excuses	-2042
▁meilleure	-2043
dic	-2044
▁Ses	-2045
▁lis	-2046
▁bizar	-2047
▁inqui	-2048
▁pluie	-2049
ression	-2050
▁années	-2051
▁fleurs	-2052
▁certain	-2053
xi	-2054
enne	-2055
▁rat	-2056
▁sty	-2057
erais	-2058
▁quitter	-2059
év	-2060
▁Tr	-2061
onte	-2062
tile	-2063
▁hum	-2064
tures	-2065
▁coin	-2066
▁payé	-2067
▁carte	-2068
▁envir	-2069
▁repas	-2070
acheter	-2071
▁chiens	-2072
▁minute	-2073
mée	-2074
▁ay	-2075
▁doi	-2076
▁ign	-2077
ières	-2078
▁Dans	-2079
▁remp	-2080
▁véri	-2081
tuelle	-2082
▁capable	-2083
▁regarde	-2084
▁intéressant	-2085
aque	-2086
▁men	-2087
▁rég	-2088
ardez	-2089
oubli	-2090
▁aband	-2091
hôpital	-2092
▁bateau	-2093
▁demanda	-2094
▁sommeil	-2095
▁bâ	-2096
▁cam	-2097
▁fai	-2098
▁anim	-2099
▁perm	-2100
▁volé	-2101
▁Allez	-2102
▁piano	-2103
▁ordinateur	-2104
vre	-2105
▁no	-2106
dess	-2107
▁bar	-2108
endez	-2109
▁hors	-2110
▁succ	-2111
▁allée	-2112
▁court	-2113
▁suite	-2114
▁école	-2115
essayer	-2116
▁grosse	-2117
▁Regarde	-2118
▁compris	-2119
éci	-2120
liez	-2121
▁cré	-2122
▁sus	-2123
ilité	-2124
onter	-2125
▁haut	-2126
▁mens	-2127
▁venue	-2128
▁feriez	-2129
▁prison	-2130
▁souhait	-2131
▁impressi	-2132
▁dangereux	-2133
▁satisfait	-2134
▁ess	-2135
▁poids	-2136
▁telle	-2137
▁gentil	-2138
▁inform	-2139
▁ouvert	-2140
▁équipe	-2141
▁bizarre	-2142
▁réparer	-2143
▁souhaite	-2144
az	-2145
▁Dem	-2146
▁Dés	-2147
▁jet	-2148
areil	-2149
autres	-2150
▁corre	-2151
▁faute	-2152
▁regre	-2153
▁réjou	-2154
▁réuss	-2155
attends	-2156
▁Donnez	-2157
▁impati	-2158
▁règles	-2159
▁rivière	-2160
▁pleuvoir	-2161
aff	-2162
ult	-2163
▁bu	-2164
prit	-2165
▁dém	-2166
▁sel	-2167
▁nerv	-2168
▁dormi	-2169
▁recher	-2170
eusement	-2171
ann	-2172
cée	-2173
ris	-2174
éch	-2175
▁Ta	-2176
▁hô	-2177
▁Plus	-2178
▁avoc	-2179
▁mien	-2180
onnête	-2181
▁repos	-2182
érience	-2183
▁effray	-2184
▁rendez	-2185
▁lunettes	-2186
yo	-2187
euf	-2188
tit	-2189
ède	-2190
▁né	-2191
▁rh	-2192
oche	-2193
okyo	-2194
▁Tokyo	-2195
▁parap	-2196
▁radio	-2197
▁resté	-2198
appelle	-2199
▁endorm	-2200
▁parlez	-2201
▁succès	-2202
lu	-2203
▁Éc	-2204
▁bas	-2205
▁cho	-2206
▁fav	-2207
▁int	-2208
▁lac	-2209
▁lar	-2210
reuse	-2211
rible	-2212
▁Beau	-2213
▁bâti	-2214
▁fera	-2215
veille	-2216
▁donna	-2217
▁secon	-2218
▁serez	-2219
▁tenir	-2220
▁manque	-2221
attendre	-2222
étranger	-2223
▁plupart	-2224
▁regardé	-2225
▁étrange	-2226
▁finalement	-2227
ifi	-2228
▁at	-2229
▁onc	-2230
ignor	-2231
ortez	-2232
▁coll	-2233
▁mach	-2234
▁prit	-2235
▁début	-2236
▁autour	-2237
▁invité	-2238
▁pommes	-2239
▁recomm	-2240
▁Beaucoup	-2241
▁paraplui	-2242
cer	-2243
vén	-2244
▁goû	-2245
titut	-2246
utile	-2247
▁Suis	-2248
▁guit	-2249
▁soci	-2250
convén	-2251
itique	-2252
▁allés	-2253
▁oncle	-2254
▁trait	-2255
▁change	-2256
▁viande	-2257
▁connaître	-2258
cip	-2259
oli	-2260
▁Et	-2261
rice	-2262
érée	-2263
étud	-2264
▁fac	-2265
▁réal	-2266
▁surv	-2267
▁donne	-2268
▁danger	-2269
▁dirait	-2270
▁entend	-2271
▁vendre	-2272
▁garçons	-2273
▁poisson	-2274
▁amoureux	-2275
convénient	-2276
diot	-2277
irai	-2278
▁dég	-2279
alent	-2280
▁form	-2281
▁tran	-2282
oindre	-2283
▁danser	-2284
▁fermer	-2285
▁Lorsque	-2286
▁courant	-2287
▁parfait	-2288
▁comprend	-2289
act	-2290
ail	-2291
déj	-2292
▁Me	-2293
▁cu	-2294
imag	-2295
quis	-2296
▁div	-2297
▁gla	-2298
▁met	-2299
amour	-2300
auche	-2301
▁Rest	-2302
▁Sois	-2303
▁face	-2304
▁poss	-2305
▁préc	-2306
atique	-2307
dessus	-2308
▁Voici	-2309
▁génér	-2310
▁médic	-2311
▁papier	-2312
▁résult	-2313
▁Arrêtez	-2314
▁tableau	-2315
▁parviens	-2316
▁parapluie	-2317
pt	-2318
st	-2319
fin	-2320
iver	-2321
▁min	-2322
iques	-2323
▁extr	-2324
▁mess	-2325
▁pren	-2326
▁symp	-2327
▁lever	-2328
▁pouss	-2329
▁rhume	-2330
▁tombé	-2331
entends	-2332
▁Allons	-2333
▁cheval	-2334
▁photos	-2335
▁prêter	-2336
▁seriez	-2337
▁sérieux	-2338
ifie	-2339
ines	-2340
tenu	-2341
▁ble	-2342
▁pou	-2343
▁rée	-2344
▁sec	-2345
▁tim	-2346
asion	-2347
mment	-2348
▁atte	-2349
▁base	-2350
▁desc	-2351
▁cassé	-2352
▁ennuy	-2353
instant	-2354
▁sentir	-2355
▁triste	-2356
▁faisons	-2357
▁parfois	-2358
▁fatiguée	-2359
▁étudiant	-2360
▁Australie	-2361
▁fonctionne	-2362
ales	-2363
▁mou	-2364
ombre	-2365
▁mign	-2366
▁gagné	-2367
▁press	-2368
▁roman	-2369
▁spéci	-2370
▁trans	-2371
appeler	-2372
▁Toutes	-2373
▁constr	-2374
▁dessus	-2375
▁tranqu	-2376
▁actuelle	-2377
▁plusieurs	-2378
▁proposition	-2379
exc	-2380
olie	-2381
▁por	-2382
prise	-2383
▁empl	-2384
▁taxi	-2385
oublie	-2386
▁Reste	-2387
▁chats	-2388
▁épous	-2389
mérique	-2390
▁allait	-2391
▁dispar	-2392
▁marche	-2393
▁réjouis	-2394
▁Voudriez	-2395
▁appareil	-2396
urg	-2397
llem	-2398
▁dès	-2399
▁pop	-2400
avion	-2401
▁aidé	-2402
▁cess	-2403
▁clés	-2404
▁parl	-2405
▁voix	-2406
écrire	-2407
▁aviez	-2408
▁coûte	-2409
▁drôle	-2410
▁milli	-2411
▁super	-2412
▁devenu	-2413
▁nature	-2414
▁patron	-2415
▁proche	-2416
▁mariage	-2417
▁Quiconque	-2418
▁présenter	-2419
bat	-2420
des	-2421
uve	-2422
▁cli	-2423
▁tri	-2424
ences	-2425
inion	-2426
▁rare	-2427
▁doute	-2428
▁pleut	-2429
▁salle	-2430
▁aurais	-2431
▁détest	-2432
▁machine	-2433
▁tempête	-2434
▁discours	-2435
▁signifie	-2436
▁z	-2437
men	-2438
arti	-2439
irer	-2440
▁Dev	-2441
tions	-2442
▁bons	-2443
▁camp	-2444
▁moyen	-2445
iennent	-2446
▁courir	-2447
▁durant	-2448
▁jeunes	-2449
▁public	-2450
déjeuner	-2451
▁compter	-2452
▁préféré	-2453
▁conseils	-2454
▁rappeler	-2455
▁retourner	-2456
▁certainement	-2457
mén	-2458
▁Fr	-2459
ange	-2460
ttes	-2461
▁dos	-2462
▁tué	-2463
ancer	-2464
▁idiot	-2465
▁impos	-2466
▁pieds	-2467
▁préfé	-2468
ignorais	-2469
▁viendra	-2470
▁ressemble	-2471
▁supporter	-2472
▁travaillé	-2473
▁également	-2474
▁anniversaire	-2475
cev	-2476
esc	-2477
raî	-2478
▁nav	-2479
▁nég	-2480
gment	-2481
▁foot	-2482
examen	-2483
▁aille	-2484
▁pleur	-2485
▁seras	-2486
ctement	-2487
▁bonnes	-2488
▁habitu	-2489
▁simple	-2490
▁attendu	-2491
▁voyager	-2492
▁intelligent	-2493
art	-2494
inf	-2495
dans	-2496
après	-2497
▁Ceci	-2498
▁Main	-2499
▁pire	-2500
▁Quels	-2501
▁ouver	-2502
▁taille	-2503
▁chemise	-2504
▁bâtiment	-2505
▁enseignant	-2506
éli	-2507
onge	-2508
quée	-2509
trap	-2510
▁indi	-2511
▁tuer	-2512
▁vent	-2513
▁aimer	-2514
▁forte	-2515
▁marié	-2516
▁progr	-2517
▁Montre	-2518
▁chante	-2519
▁lequel	-2520
▁guitare	-2521
▁message	-2522
▁supposé	-2523
▁conseillé	-2524
▁sentiment	-2525
gan	-2526
▁mur	-2527
▁pai	-2528
euses	-2529
issez	-2530
▁Quoi	-2531
▁priv	-2532
illage	-2533
nement	-2534
oyable	-2535
▁Venez	-2536
▁stylo	-2537
▁sucre	-2538
▁États	-2539
▁attent	-2540
▁crains	-2541
▁promis	-2542
▁soirée	-2543
▁animaux	-2544
▁appeler	-2545
▁coucher	-2546
▁Maintenant	-2547
où	-2548
gle	-2549
▁id	-2550
icul	-2551
orer	-2552
ront	-2553
tres	-2554
▁cir	-2555
▁lég	-2556
▁oise	-2557
▁susp	-2558
▁censé	-2559
▁fruit	-2560
èrement	-2561
▁chaise	-2562
▁ouvrir	-2563
▁passée	-2564
▁amusant	-2565
▁cherche	-2566
▁erreurs	-2567
▁semblez	-2568
attendais	-2569
▁Regardez	-2570
▁contrari	-2571
▁continuer	-2572
pl	-2573
oué	-2574
fier	-2575
âche	-2576
▁mec	-2577
▁mét	-2578
▁éte	-2579
▁bord	-2580
▁chou	-2581
▁ciel	-2582
▁prép	-2583
▁écou	-2584
▁aimes	-2585
▁chanc	-2586
▁malad	-2587
▁avocat	-2588
▁parles	-2589
▁pauvre	-2590
▁vivent	-2591
▁couleur	-2592
▁dérange	-2593
▁habitue	-2594
▁honnête	-2595
▁emprunter	-2596
▁conscience	-2597
ah	-2598
éd	-2599
ges	-2600
▁sk	-2601
inée	-2602
isse	-2603
isée	-2604
sions	-2605
▁Avec	-2606
▁pein	-2607
▁sang	-2608
▁vend	-2609
itable	-2610
▁Aucun	-2611
▁appel	-2612
▁arrêt	-2613
▁vingt	-2614
▁consid	-2615
▁volont	-2616
▁particu	-2617
▁réussir	-2618
▁commença	-2619
▁semaines	-2620
▁facilement	-2621
0.	-2622
chée	-2623
ectu	-2624
iles	-2625
oite	-2626
onna	-2627
▁but	-2628
▁cer	-2629
asses	-2630
iendra	-2631
ulaire	-2632
▁blanc	-2633
▁calme	-2634
▁dents	-2635
▁gérer	-2636
▁sache	-2637
univers	-2638
▁Restez	-2639
▁battre	-2640
▁marier	-2641
▁savons	-2642
▁Quelque	-2643
▁contente	-2644
▁particuli	-2645
▁remercier	-2646
▁k	-2647
hier	-2648
éter	-2649
▁sci	-2650
onnée	-2651
▁Cont	-2652
▁aies	-2653
▁crav	-2654
▁vécu	-2655
▁boute	-2656
▁hôtel	-2657
▁jolie	-2658
▁copine	-2659
▁douche	-2660
▁médica	-2661
▁risque	-2662
▁suivre	-2663
▁séjour	-2664
▁décider	-2665
▁laissez	-2666
▁partout	-2667
▁propres	-2668
▁difficul	-2669
▁souvenir	-2670
▁tranquille	-2671
ps	-2672
Unis	-2673
▁fas	-2674
▁élè	-2675
venue	-2676
▁Conn	-2677
▁ayez	-2678
▁pard	-2679
esprit	-2680
▁Viens	-2681
▁bille	-2682
▁ignor	-2683
▁visage	-2684
▁cravate	-2685
▁embrass	-2686
▁environ	-2687
▁seconde	-2688
▁différence	-2689
▁impossible	-2690
apé	-2691
▁Te	-2692
andé	-2693
bout	-2694
▁cul	-2695
erait	-2696
▁Hier	-2697
▁célè	-2698
▁neuf	-2699
dedans	-2700
▁démis	-2701
▁silen	-2702
▁accomp	-2703
▁cherch	-2704
▁commun	-2705
▁manqué	-2706
▁mariée	-2707
▁parole	-2708
▁douleur	-2709
▁langues	-2710
▁inconvénient	-2711
hum	-2712
oie	-2713
ork	-2714
tié	-2715
erie	-2716
▁bag	-2717
▁bal	-2718
▁tel	-2719
arbre	-2720
hôtel	-2721
▁ador	-2722
▁bain	-2723
▁norm	-2724
▁coute	-2725
▁prévu	-2726
ination	-2727
▁debout	-2728
▁envoyé	-2729
aitement	-2730
▁concert	-2731
▁opinion	-2732
▁vouliez	-2733
▁promesse	-2734
▁merveille	-2735
▁responsable	-2736
ta	-2737
los	-2738
oux	-2739
qua	-2740
acun	-2741
usse	-2742
▁New	-2743
▁lev	-2744
expli	-2745
▁Bien	-2746
▁soup	-2747
réable	-2748
▁impli	-2749
▁lente	-2750
▁refus	-2751
▁banque	-2752
▁gauche	-2753
▁moitié	-2754
▁montré	-2755
▁avaient	-2756
▁Voudrais	-2757
impression	-2758
▁promenade	-2759
îmes	-2760
▁œil	-2761
inqui	-2762
inter	-2763
▁Sont	-2764
▁ciné	-2765
▁dort	-2766
▁honte	-2767
▁avions	-2768
▁faveur	-2769
▁gouver	-2770
▁longue	-2771
▁obligé	-2772
▁rentré	-2773
▁compagn	-2774
▁manquer	-2775
▁portait	-2776
▁montagne	-2777
▁actuellement	-2778
ave	-2779
rib	-2780
▁In	-2781
▁Va	-2782
▁fl	-2783
onom	-2784
rier	-2785
érop	-2786
▁brû	-2787
▁loi	-2788
▁ord	-2789
istes	-2790
▁incr	-2791
▁viol	-2792
▁arbre	-2793
▁gagne	-2794
▁garde	-2795
▁morte	-2796
arriver	-2797
▁auriez	-2798
▁espoir	-2799
▁groupe	-2800
▁Aujourd	-2801
▁augment	-2802
▁ouverte	-2803
▁promets	-2804
intérieur	-2805
▁réfléchir	-2806
▁réellement	-2807
▁reconnaissant	-2808
ak	-2809
oh	-2810
ira	-2811
rob	-2812
▁em	-2813
▁sup	-2814
▁débar	-2815
▁démén	-2816
▁forme	-2817
▁seuls	-2818
occuper	-2819
▁cinéma	-2820
▁disput	-2821
▁ennuis	-2822
▁obtenu	-2823
lication	-2824
▁adresse	-2825
▁fallait	-2826
▁société	-2827
▁apprécié	-2828
▁cuisiner	-2829
▁nettoyer	-2830
▁rarement	-2831
▁convaincu	-2832
gie	-2833
avis	-2834
gner	-2835
tiez	-2836
▁déçu	-2837
▁pont	-2838
▁capit	-2839
▁fermé	-2840
▁glace	-2841
▁mille	-2842
▁pomme	-2843
▁possi	-2844
▁échec	-2845
éroport	-2846
empêcher	-2847
▁prudente	-2848
ach	-2849
gés	-2850
ket	-2851
ège	-2852
▁Ex	-2853
▁ly	-2854
fois	-2855
olog	-2856
▁doc	-2857
▁jal	-2858
▁tot	-2859
▁décl	-2860
▁méri	-2861
▁pare	-2862
lettes	-2863
rerais	-2864
▁avion	-2865
▁fallu	-2866
▁rends	-2867
▁sport	-2868
▁utile	-2869
▁vieil	-2870
▁Désolé	-2871
▁blague	-2872
▁revenu	-2873
▁répondu	-2874
▁confecti	-2875
▁semblait	-2876
▁vérifier	-2877
tés	-2878
▁Tes	-2879
▁Dieu	-2880
▁afin	-2881
▁dent	-2882
▁dipl	-2883
▁déli	-2884
▁ravi	-2885
▁morce	-2886
▁pause	-2887
▁proté	-2888
▁compli	-2889
▁disent	-2890
▁portes	-2891
▁respec	-2892
▁couteau	-2893
▁célèbre	-2894
▁ressent	-2895
▁revenir	-2896
▁comporte	-2897
▁bouteille	-2898
▁conseilla	-2899
▁lentement	-2900
amb	-2901
ile	-2902
rim	-2903
tir	-2904
équ	-2905
aies	-2906
ième	-2907
obre	-2908
père	-2909
▁eut	-2910
▁ren	-2911
arrêt	-2912
▁arme	-2913
▁fond	-2914
ondres	-2915
▁Aimes	-2916
▁adore	-2917
▁corps	-2918
▁divor	-2919
▁match	-2920
▁tient	-2921
▁canapé	-2922
▁dépend	-2923
▁moyens	-2924
▁démissi	-2925
▁nerveux	-2926
▁chouette	-2927
▁nouveaux	-2928
▁intéressé	-2929
▁rencontrés	-2930
▁habituellement	-2931
aré	-2932
off	-2933
rig	-2934
ufs	-2935
▁ve	-2936
atif	-2937
cell	-2938
oque	-2939
romp	-2940
êmes	-2941
▁ali	-2942
▁gri	-2943
▁loc	-2944
accep	-2945
cteur	-2946
raite	-2947
▁chin	-2948
▁curi	-2949
▁dise	-2950
▁goût	-2951
▁note	-2952
▁retr	-2953
▁trem	-2954
import	-2955
▁allum	-2956
▁décid	-2957
▁frais	-2958
▁organ	-2959
▁bouton	-2960
▁ferait	-2961
▁mentir	-2962
▁quitté	-2963
▁seules	-2964
tituteur	-2965
▁Londres	-2966
▁extrême	-2967
▁joindre	-2968
▁maladie	-2969
▁visiter	-2970
apprendre	-2971
▁Certains	-2972
▁produire	-2973
▁Al	-2974
ouve	-2975
port	-2976
sons	-2977
▁adm	-2978
▁amb	-2979
▁ens	-2980
▁lib	-2981
▁lim	-2982
▁pén	-2983
▁rej	-2984
▁réc	-2985
▁tic	-2986
▁couv	-2987
▁dési	-2988
▁ferm	-2989
▁soud	-2990
iennes	-2991
▁clair	-2992
▁const	-2993
▁dirai	-2994
▁démar	-2995
▁ferme	-2996
▁fiche	-2997
▁laver	-2998
▁prêts	-2999
abilité	-3000
usement	-3001
écouter	-3002
aéroport	-3003
▁Pouvons	-3004
▁conduis	-3005
▁conduit	-3006
▁endormi	-3007
▁entière	-3008
▁instant	-3009
▁possède	-3010
▁agréable	-3011
▁réveillé	-3012
▁président	-3013
▁incroyable	-3014
na	-3015
atu	-3016
cal	-3017
col	-3018
ime	-3019
ohn	-3020
▁Th	-3021
▁us	-3022
heur	-3023
êche	-3024
▁Vas	-3025
▁John	-3026
▁Même	-3027
▁date	-3028
▁lève	-3029
cation	-3030
▁idées	-3031
▁perte	-3032
▁Essaie	-3033
▁France	-3034
▁claire	-3035
▁commis	-3036
▁préparé	-3037
▁sourire	-3038
extérieur	-3039
▁terminer	-3040
université	-3041
▁politique	-3042
▁importante	-3043
ett	-3044
its	-3045
rie	-3046
▁Cr	-3047
orme	-3048
ution	-3049
▁cray	-3050
▁dest	-3051
▁meur	-3052
▁sold	-3053
▁tend	-3054
▁éner	-3055
ifique	-3056
équipe	-3057
▁connu	-3058
▁déjeu	-3059
▁march	-3060
asseoir	-3061
atiques	-3062
▁celles	-3063
▁mienne	-3064
▁arrivée	-3065
▁attrapé	-3066
▁concent	-3067
▁docteur	-3068
▁mensonge	-3069
▁protéger	-3070
▁convaincre	-3071
▁connaissance	-3072
▁gouvernement	-3073
dis	-3074
œil	-3075
▁lé	-3076
acle	-3077
aill	-3078
mbre	-3079
ouer	-3080
ôtre	-3081
▁déç	-3082
▁poi	-3083
▁éve	-3084
aurai	-3085
▁Mets	-3086
▁atta	-3087
▁croy	-3088
▁domm	-3089
▁faux	-3090
▁pain	-3091
▁sauf	-3092
▁trah	-3093
entend	-3094
▁manqu	-3095
▁musée	-3096
▁voler	-3097
▁éclat	-3098
isément	-3099
▁pleine	-3100
▁refusé	-3101
▁sortie	-3102
▁verrou	-3103
▁étudié	-3104
▁choisir	-3105
▁patient	-3106
▁prévois	-3107
▁regarda	-3108
▁attraper	-3109
▁malheure	-3110
▁plaisant	-3111
▁pourriez	-3112
▁préférée	-3113
▁préparer	-3114
▁découvert	-3115
▁heureuses	-3116
▁silencieux	-3117
▁extrêmement	-3118
▁précisément	-3119
▁préférerais	-3120
▁intéressante	-3121
▁sérieusement	-3122
adm	-3123
asp	-3124
cte	-3125
lex	-3126
one	-3127
▁ém	-3128
aign	-3129
itée	-3130
érir	-3131
▁sub	-3132
▁fant	-3133
▁lour	-3134
▁nage	-3135
▁pati	-3136
▁sept	-3137
envers	-3138
▁jambe	-3139
▁peint	-3140
▁sympa	-3141
▁trucs	-3142
oubliez	-3143
étudier	-3144
▁choisi	-3145
▁seront	-3146
▁tombée	-3147
▁apporté	-3148
▁contact	-3149
▁disparu	-3150
▁faisais	-3151
▁écouter	-3152
▁voitures	-3153
▁parfaitement	-3154
▁na	-3155
▁nez	-3156
▁oct	-3157
▁asse	-3158
▁dure	-3159
▁mets	-3160
▁paix	-3161
▁plac	-3162
▁vide	-3163
aimait	-3164
essaie	-3165
llerai	-3166
▁Alors	-3167
▁Paris	-3168
▁circu	-3169
▁quant	-3170
▁absent	-3171
▁cloche	-3172
▁fruits	-3173
▁frères	-3174
▁possib	-3175
▁convers	-3176
▁suggère	-3177
▁village	-3178
quisition	-3179
entretenir	-3180
▁permettre	-3181
▁quelconque	-3182
▁sentiments	-3183
lég	-3184
mon	-3185
occ	-3186
oph	-3187
éra	-3188
▁sc	-3189
imez	-3190
raph	-3191
▁enc	-3192
▁pun	-3193
andid	-3194
▁hâte	-3195
▁saou	-3196
▁sûrs	-3197
▁fière	-3198
▁fourn	-3199
▁ligne	-3200
llemand	-3201
▁candid	-3202
▁prêtes	-3203
▁pêcher	-3204
▁soient	-3205
▁ensuite	-3206
▁octobre	-3207
▁spécial	-3208
▁autorisé	-3209
▁permission	-3210
enn	-3211
noc	-3212
oté	-3213
▁én	-3214
idée	-3215
rase	-3216
tume	-3217
▁Dép	-3218
▁Ret	-3219
▁Vos	-3220
▁art	-3221
▁dév	-3222
▁fum	-3223
▁hau	-3224
▁pre	-3225
▁réd	-3226
▁tir	-3227
▁cens	-3228
▁pron	-3229
▁semb	-3230
allais	-3231
▁diplô	-3232
▁magaz	-3233
▁pours	-3234
▁rêves	-3235
affaire	-3236
excuser	-3237
▁habite	-3238
▁profon	-3239
▁sombre	-3240
▁Quelles	-3241
▁blessée	-3242
▁courses	-3243
▁occupés	-3244
expliquer	-3245
▁attentiv	-3246
▁remettre	-3247
▁retraite	-3248
▁compagnie	-3249
▁connaisse	-3250
ath	-3251
ude	-3252
cine	-3253
essi	-3254
isez	-3255
isés	-3256
éric	-3257
▁Sur	-3258
▁cos	-3259
▁tap	-3260
ative	-3261
igner	-3262
▁York	-3263
▁annu	-3264
▁chef	-3265
▁exig	-3266
▁huit	-3267
▁mord	-3268
▁pars	-3269
ection	-3270
▁assur	-3271
▁enfin	-3272
▁force	-3273
▁forcé	-3274
▁venus	-3275
▁absolu	-3276
▁accord	-3277
▁ailles	-3278
▁combat	-3279
▁prenez	-3280
▁soucie	-3281
Amérique	-3282
▁accepté	-3283
▁morceau	-3284
▁service	-3285
▁voisins	-3286
▁coupable	-3287
▁football	-3288
▁regrette	-3289
▁terrible	-3290
▁trouvait	-3291
▁voudriez	-3292
expérience	-3293
▁devraient	-3294
ié	-3295
bes	-3296
inv	-3297
vée	-3298
ingu	-3299
inté	-3300
lopp	-3301
ycle	-3302
éner	-3303
▁Ass	-3304
▁has	-3305
assez	-3306
▁amen	-3307
▁diri	-3308
▁prét	-3309
▁romp	-3310
cevoir	-3311
lément	-3312
velopp	-3313
▁Voilà	-3314
▁amusé	-3315
▁exemp	-3316
▁morts	-3317
▁nulle	-3318
▁sûres	-3319
ération	-3320
▁aiment	-3321
▁cacher	-3322
▁commer	-3323
▁grands	-3324
▁hasard	-3325
▁larmes	-3326
▁matins	-3327
▁phrase	-3328
▁sauver	-3329
▁Essayez	-3330
▁Faisons	-3331
▁obtenir	-3332
▁program	-3333
▁sembles	-3334
▁Certaines	-3335
▁expliquer	-3336
▁recherche	-3337
▁médicament	-3338
▁correctement	-3339
oti	-3340
▁gâ	-3341
▁ur	-3342
erne	-3343
lise	-3344
mère	-3345
omas	-3346
▁Jus	-3347
▁mai	-3348
▁occ	-3349
▁ore	-3350
▁rum	-3351
aband	-3352
iment	-3353
érons	-3354
▁bour	-3355
▁géni	-3356
▁levé	-3357
▁légu	-3358
▁état	-3359
▁Chine	-3360
▁corde	-3361
▁innoc	-3362
▁lycée	-3363
▁paire	-3364
▁persu	-3365
▁selon	-3366
imagine	-3367
▁Thomas	-3368
▁chaude	-3369
▁droite	-3370
▁débrou	-3371
▁excell	-3372
▁mariés	-3373
▁mérite	-3374
▁refuse	-3375
▁savent	-3376
▁serons	-3377
▁vienne	-3378
▁élèves	-3379
occasion	-3380
▁marrant	-3381
▁conversation	-3382
dra	-3383
mbl	-3384
uer	-3385
éte	-3386
cule	-3387
indi	-3388
ûmes	-3389
▁obj	-3390
▁opp	-3391
▁put	-3392
ingue	-3393
moire	-3394
rimer	-3395
terre	-3396
venus	-3397
▁coût	-3398
▁exam	-3399
▁pier	-3400
▁Aimez	-3401
▁balle	-3402
▁congé	-3403
▁privé	-3404
▁signe	-3405
▁soupe	-3406
▁écriv	-3407
iendrai	-3408
▁Depuis	-3409
▁Mettez	-3410
▁effort	-3411
▁nouvel	-3412
▁racont	-3413
▁talent	-3414
▁valise	-3415
▁voisin	-3416
▁étudie	-3417
▁Attends	-3418
Australie	-3419
▁contrôle	-3420
▁pratique	-3421
▁solution	-3422
▁impatient	-3423
▁mauvaises	-3424
▁passeport	-3425
▁printemps	-3426
▁véritable	-3427
acquisition	-3428
▁absolument	-3429
ope	-3430
pes	-3431
uiv	-3432
aman	-3433
▁imm	-3434
▁mér	-3435
▁née	-3436
endie	-3437
rique	-3438
▁posé	-3439
▁same	-3440
attrap	-3441
cieuse	-3442
icycle	-3443
inform	-3444
▁crime	-3445
▁dérou	-3446
▁sœurs	-3447
▁tombe	-3448
isation	-3449
urgence	-3450
▁Chaque	-3451
▁consac	-3452
▁devais	-3453
▁fasses	-3454
▁partis	-3455
▁écouté	-3456
▁bagages	-3457
▁habitué	-3458
▁importe	-3459
▁invités	-3460
▁pensait	-3461
▁princip	-3462
▁prisonn	-3463
▁vitesse	-3464
▁accepter	-3465
▁chansons	-3466
▁distance	-3467
▁peinture	-3468
▁plaindre	-3469
ib	-3470
fié	-3471
opp	-3472
oto	-3473
tal	-3474
tin	-3475
tru	-3476
urs	-3477
illa	-3478
▁mir	-3479
▁pis	-3480
▁riz	-3481
▁aura	-3482
▁crue	-3483
▁joué	-3484
▁lett	-3485
▁mise	-3486
▁tenu	-3487
accomp	-3488
ctions	-3489
écoute	-3490
▁Voyez	-3491
▁aimez	-3492
▁baiss	-3493
▁choco	-3494
▁faits	-3495
▁foule	-3496
▁suici	-3497
▁théor	-3498
astique	-3499
▁Dispos	-3500
▁avance	-3501
▁billet	-3502
▁couper	-3503
▁déterm	-3504
▁examen	-3505
▁grossi	-3506
▁soyons	-3507
▁bicycle	-3508
▁boisson	-3509
▁compren	-3510
▁effectu	-3511
▁chanceux	-3512
▁remarqué	-3513
▁amoureuse	-3514
▁bicyclette	-3515
▁expérience	-3516
▁supplément	-3517
▁appartement	-3518
▁différentes	-3519
ué	-3520
irm	-3521
olf	-3522
tur	-3523
ule	-3524
▁zo	-3525
gées	-3526
inue	-3527
quet	-3528
èvre	-3529
▁bis	-3530
▁chi	-3531
▁dom	-3532
hiver	-3533
étudi	-3534
▁arti	-3535
▁idio	-3536
▁tiré	-3537
enfant	-3538
▁auras	-3539
▁caché	-3540
▁jeter	-3541
▁siège	-3542
▁veste	-3543
▁vraie	-3544
▁Lequel	-3545
▁améric	-3546
▁arbres	-3547
▁devait	-3548
▁dirais	-3549
▁frappé	-3550
▁samedi	-3551
▁voleur	-3552
▁échapp	-3553
▁échoué	-3554
▁chaleur	-3555
▁dommage	-3556
▁lettres	-3557
▁légumes	-3558
▁prendra	-3559
▁respect	-3560
▁Attendez	-3561
▁ennuyeux	-3562
▁gentille	-3563
▁préoccup	-3564
▁résultat	-3565
▁veuilles	-3566
▁construit	-3567
▁pourrions	-3568
▁résultats	-3569
▁connaissait	-3570
zz	-3571
éf	-3572
cus	-3573
eff	-3574
eus	-3575
feu	-3576
île	-3577
▁10	-3578
▁fâ	-3579
ader	-3580
ngle	-3581
rage	-3582
umer	-3583
▁Fer	-3584
▁eau	-3585
▁eng	-3586
▁hér	-3587
▁pét	-3588
▁vus	-3589
▁âgé	-3590
chant	-3591
êtres	-3592
▁cous	-3593
▁enne	-3594
▁golf	-3595
▁inti	-3596
▁loup	-3597
▁révé	-3598
▁trac	-3599
▁trou	-3600
▁œufs	-3601
ateurs	-3602
▁dépri	-3603
▁entré	-3604
▁incap	-3605
▁offre	-3606
▁pénét	-3607
▁règle	-3608
adresse	-3609
▁cartes	-3610
▁départ	-3611
▁essaya	-3612
▁monter	-3613
▁navire	-3614
▁rendit	-3615
▁chinois	-3616
▁costume	-3617
▁mémoire	-3618
▁refaire	-3619
▁salaire	-3620
ngleterre	-3621
▁occupées	-3622
▁connaissez	-3623
▁débarrasser	-3624
da	-3625
lin	-3626
cien	-3627
▁cle	-3628
▁dro	-3629
▁ira	-3630
▁pla	-3631
aimes	-3632
asser	-3633
oires	-3634
▁fume	-3635
▁magn	-3636
aurait	-3637
issent	-3638
itions	-3639
▁améli	-3640
▁crain	-3641
▁poche	-3642
▁tiens	-3643
▁vôtre	-3644
assurer	-3645
érature	-3646
▁chauff	-3647
▁compos	-3648
▁crayon	-3649
▁milieu	-3650
▁valeur	-3651
▁arrivés	-3652
▁menteur	-3653
▁pensent	-3654
▁soldats	-3655
embrasser	-3656
intéresse	-3657
▁chocolat	-3658
▁commandé	-3659
▁horrible	-3660
▁difficultés	-3661
▁attentivement	-3662
gré	-3663
âge	-3664
▁Eh	-3665
ails	-3666
amis	-3667
aule	-3668
itôt	-3669
▁maj	-3670
allez	-3671
raign	-3672
épous	-3673
▁Dois	-3674
▁bleu	-3675
▁demi	-3676
▁lave	-3677
▁mecs	-3678
▁soul	-3679
▁tien	-3680
ercice	-3681
ilités	-3682
▁Ferme	-3683
▁colle	-3684
▁faill	-3685
▁puiss	-3686
▁tirer	-3687
énergie	-3688
▁bouche	-3689
▁caisse	-3690
▁cancer	-3691
▁chacun	-3692
▁compét	-3693
▁cuisin	-3694
▁faible	-3695
▁urgent	-3696
▁échecs	-3697
▁Demande	-3698
▁bonheur	-3699
▁doivent	-3700
▁obligée	-3701
▁parlent	-3702
▁profond	-3703
▁remerci	-3704
▁théorie	-3705
▁campagne	-3706
▁donnerai	-3707
▁portable	-3708
▁traverser	-3709
▁intéressée	-3710
▁circulation	-3711
▁entièrement	-3712
▁particulier	-3713
▁impressionné	-3714
ub	-3715
ode	-3716
ric	-3717
édé	-3718
▁pâ	-3719
arme	-3720
asun	-3721
lair	-3722
âtre	-3723
▁Nos	-3724
▁fix	-3725
▁maî	-3726
▁obs	-3727
▁oui	-3728
▁roi	-3729
andis	-3730
anger	-3731
erver	-3732
istre	-3733
ément	-3734
▁Deux	-3735
▁flic	-3736
▁gasp	-3737
▁juge	-3738
▁ponc	-3739
▁reli	-3740
▁tire	-3741
▁vidé	-3742
▁vint	-3743
arrête	-3744
essaye	-3745
habite	-3746
meriez	-3747
onnaie	-3748
quette	-3749
▁gratu	-3750
▁justi	-3751
▁prise	-3752
▁élevé	-3753
▁épuis	-3754
▁Aucune	-3755
▁décida	-3756
▁envers	-3757
▁rentre	-3758
▁sortit	-3759
▁tienne	-3760
▁traite	-3761
indiquer	-3762
▁grandes	-3763
▁toucher	-3764
▁tremble	-3765
▁embrassé	-3766
▁semblant	-3767
▁abandonné	-3768
▁direction	-3769
▁japonaise	-3770
anniversaire	-3771
▁explication	-3772
▁fonctionner	-3773
ize	-3774
▁Ou	-3775
▁pn	-3776
anad	-3777
cool	-3778
ieur	-3779
ouse	-3780
érêt	-3781
▁Fin	-3782
▁cig	-3783
▁cru	-3784
▁hur	-3785
▁kil	-3786
▁zoo	-3787
appar	-3788
chons	-3789
esses	-3790
ètres	-3791
▁batt	-3792
▁boit	-3793
▁jume	-3794
▁midi	-3795
▁poup	-3796
▁raté	-3797
▁secr	-3798
▁sert	-3799
▁test	-3800
▁yens	-3801
action	-3802
arrass	-3803
issait	-3804
église	-3805
▁Canad	-3806
▁canad	-3807
▁compt	-3808
▁dépla	-3809
▁skier	-3810
▁tenté	-3811
▁écout	-3812
itation	-3813
▁alliez	-3814
▁coûter	-3815
▁crédit	-3816
▁résolu	-3817
▁ticket	-3818
▁blesser	-3819
▁devenue	-3820
▁devient	-3821
▁effrayé	-3822
▁inquiet	-3823
▁matinée	-3824
▁répéter	-3825
▁tourner	-3826
▁baseball	-3827
▁convient	-3828
▁discussi	-3829
▁raconter	-3830
▁incapable	-3831
▁toilettes	-3832
▁voulaient	-3833
▁confectionné	-3834
yp	-3835
gné	-3836
hés	-3837
mpe	-3838
èle	-3839
ides	-3840
ieux	-3841
inze	-3842
itié	-3843
reur	-3844
▁Dès	-3845
▁Moi	-3846
▁fis	-3847
eriez	-3848
icien	-3849
nique	-3850
urope	-3851
▁Sans	-3852
▁alla	-3853
▁détr	-3854
▁toit	-3855
▁voie	-3856
avenir	-3857
ouvrir	-3858
quérir	-3859
▁appro	-3860
▁causé	-3861
▁croit	-3862
▁doigt	-3863
▁escal	-3864
▁films	-3865
▁folle	-3866
▁songé	-3867
▁sépar	-3868
ception	-3869
feuille	-3870
▁belles	-3871
▁grandi	-3872
▁idiote	-3873
▁oiseau	-3874
▁régime	-3875
▁sentez	-3876
▁sentis	-3877
▁surviv	-3878
▁unique	-3879
▁épouse	-3880
accepter	-3881
inquiète	-3882
▁Appelle	-3883
▁Montrez	-3884
▁détails	-3885
▁oiseaux	-3886
▁pousser	-3887
▁signifi	-3888
▁survenu	-3889
ordinaire	-3890
▁derniers	-3891
▁disputer	-3892
▁feuilles	-3893
▁magazine	-3894
importance	-3895
▁disposons	-3896
▁personnel	-3897
▁recommand	-3898
▁changement	-3899
▁merveilleux	-3900
▁portefeuille	-3901
idé	-3902
lir	-3903
▁lè	-3904
ffre	-3905
yoto	-3906
ermez	-3907
ilier	-3908
olesc	-3909
rivez	-3910
▁aveu	-3911
alcool	-3912
issons	-3913
▁aurez	-3914
▁biscu	-3915
▁brisé	-3916
▁marre	-3917
▁parie	-3918
▁spect	-3919
▁suivi	-3920
▁Était	-3921
endroit	-3922
▁Sortez	-3923
▁cercle	-3924
▁cigare	-3925
▁devint	-3926
▁pièces	-3927
▁pleuré	-3928
▁réserv	-3929
▁saches	-3930
▁timide	-3931
intéress	-3932
matiques	-3933
▁piscine	-3934
▁silence	-3935
▁station	-3936
▁arrivera	-3937
▁assister	-3938
▁fenêtres	-3939
▁sérieuse	-3940
entreprise	-3941
▁programme	-3942
▁appartient	-3943
▁clairement	-3944
▁entreprise	-3945
▁informations	-3946
ack	-3947
ita	-3948
oss	-3949
oya	-3950
espé	-3951
osse	-3952
ourv	-3953
qués	-3954
tern	-3955
uise	-3956
▁Mal	-3957
▁reç	-3958
▁rig	-3959
▁tor	-3960
▁vir	-3961
acter	-3962
aimez	-3963
assit	-3964
illés	-3965
oncer	-3966
stème	-3967
▁Sors	-3968
▁atti	-3969
▁page	-3970
▁paie	-3971
▁pizz	-3972
▁posa	-3973
▁prov	-3974
emploi	-3975
iciles	-3976
uction	-3977
échapp	-3978
▁Essay	-3979
▁Tiens	-3980
▁habit	-3981
▁pique	-3982
▁sauvé	-3983
enfants	-3984
ussitôt	-3985
▁Fermez	-3986
▁accusé	-3987
▁allées	-3988
▁centre	-3989
▁contrô	-3990
▁course	-3991
▁disait	-3992
▁dispon	-3993
▁entraî	-3994
▁refusa	-3995
▁tandis	-3996
▁tenait	-3997
▁tourne	-3998
▁Écoute	-3999
exercice	-4000
▁couvert	-4001
▁dépourv	-4002
▁fortune	-4003
▁prouver	-4004
▁système	-4005
▁traiter	-4006
▁dentiste	-4007
▁policier	-4008
▁gentilles	-4009
information	-4010
▁difficiles	-4011
▁différente	-4012
▁rencontrée	-4013
▁généralement	-4014
▁responsabilité	-4015
eue	-4016
ich	-4017
nez	-4018
ron	-4019
éle	-4020
gnée	-4021
▁Rem	-4022
▁cit	-4023
▁lap	-4024
▁nat	-4025
▁obé	-4026
▁pot	-4027
▁tre	-4028
arché	-4029
uvres	-4030
▁Vois	-4031
▁aver	-4032
▁beur	-4033
▁gars	-4034
▁proc	-4035
▁sale	-4036
▁sand	-4037
▁soif	-4038
▁voit	-4039
▁vues	-4040
▁merci	-4041
ulation	-4042
▁Demain	-4043
▁Parlez	-4044
▁Voyons	-4045
▁dépens	-4046
▁fermée	-4047
▁génial	-4048
▁instru	-4049
▁mangez	-4050
▁membre	-4051
▁pantal	-4052
▁preuve	-4053
▁répond	-4054
▁saviez	-4055
▁scient	-4056
▁Connais	-4057
▁artiste	-4058
▁maisons	-4059
▁objecti	-4060
▁oublier	-4061
▁Amérique	-4062
▁aliments	-4063
▁critique	-4064
▁mignonne	-4065
▁occasion	-4066
▁présente	-4067
▁ressembl	-4068
▁voudrait	-4069
▁étranger	-4070
▁laisserai	-4071
▁meilleurs	-4072
▁Connaissez	-4073
▁reconnaissante	-4074
gue	-4075
ote	-4076
xim	-4077
ardi	-4078
▁Jou	-4079
▁Pré	-4080
▁chu	-4081
▁fig	-4082
▁fle	-4083
abord	-4084
acité	-4085
enons	-4086
onnel	-4087
onses	-4088
ouill	-4089
quées	-4090
sique	-4091
▁coop	-4092
▁jeux	-4093
▁sage	-4094
▁vert	-4095
amuser	-4096
dément	-4097
entrée	-4098
itaire	-4099
étudie	-4100
▁brill	-4101
▁dises	-4102
▁grave	-4103
▁mathé	-4104
▁panne	-4105
▁resta	-4106
▁sandw	-4107
▁soule	-4108
cemment	-4109
onnable	-4110
épouser	-4111
▁assise	-4112
▁bouger	-4113
▁copain	-4114
▁dirige	-4115
▁garage	-4116
▁jaloux	-4117
▁laissa	-4118
▁partit	-4119
▁reprod	-4120
▁veniez	-4121
▁écoute	-4122
▁atteint	-4123
▁chausse	-4124
▁courage	-4125
▁données	-4126
▁général	-4127
▁peindre	-4128
▁projets	-4129
▁certains	-4130
▁démarrer	-4131
▁expliqué	-4132
▁impliqué	-4133
▁partager	-4134
▁poissons	-4135
▁prudents	-4136
▁réponses	-4137
▁supporte	-4138
▁traduire	-4139
▁vendredi	-4140
▁viennent	-4141
▁comprenez	-4142
▁populaire	-4143
▁réveiller	-4144
▁étrangers	-4145
instituteur	-4146
▁discussion	-4147
▁possibilité	-4148
▁profondément	-4149
▁mathématiques	-4150
ame	-4151
hor	-4152
jus	-4153
lée	-4154
▁my	-4155
▁ru	-4156
ache	-4157
assé	-4158
eaux	-4159
lons	-4160
oiff	-4161
otid	-4162
▁Esp	-4163
▁Ver	-4164
▁ach	-4165
▁ind	-4166
▁mod	-4167
agner	-4168
agère	-4169
champ	-4170
cusez	-4171
ister	-4172
lique	-4173
▁dépê	-4174
▁noms	-4175
allons	-4176
endorm	-4177
▁Celui	-4178
▁Heure	-4179
▁Passe	-4180
▁autom	-4181
▁beaux	-4182
▁emmen	-4183
▁garer	-4184
▁guère	-4185
▁haute	-4186
▁mondi	-4187
▁voyez	-4188
▁égard	-4189
irmière	-4190
ortable	-4191
▁assist	-4192
▁beurre	-4193
▁camion	-4194
▁dingue	-4195
▁désesp	-4196
▁encour	-4197
▁faudra	-4198
▁fièvre	-4199
▁humeur	-4200
▁manges	-4201
▁paraît	-4202
▁petits	-4203
▁pierre	-4204
▁plaint	-4205
▁quinze	-4206
▁quotid	-4207
▁rumeur	-4208
▁superm	-4209
▁trompé	-4210
▁Excusez	-4211
▁Parfois	-4212
▁adolesc	-4213
▁blessés	-4214
▁parlons	-4215
▁reposer	-4216
▁veuille	-4217
▁éveillé	-4218
▁biscuits	-4219
▁continué	-4220
▁courrier	-4221
▁disposer	-4222
▁dépêcher	-4223
▁enseigne	-4224
▁fatigués	-4225
▁imaginer	-4226
▁journaux	-4227
▁lumières	-4228
▁puissiez	-4229
▁terminée	-4230
▁magnifique	-4231
▁malheureux	-4232
▁impressionn	-4233
▁supermarché	-4234
adé	-4235
aid	-4236
reg	-4237
once	-4238
ouvé	-4239
rure	-4240
▁buv	-4241
▁bén	-4242
▁eur	-4243
▁meu	-4244
▁rét	-4245
appro	-4246
libat	-4247
mêmes	-4248
▁ache	-4249
▁adop	-4250
▁déco	-4251
▁fich	-4252
▁joli	-4253
▁maig	-4254
▁sinc	-4255
▁étoi	-4256
érable	-4257
▁accro	-4258
▁cache	-4259
▁chère	-4260
▁corri	-4261
▁déçue	-4262
▁forêt	-4263
▁fréqu	-4264
▁manue	-4265
▁notes	-4266
▁porté	-4267
▁remis	-4268
▁souti	-4269
▁terri	-4270
▁vidéo	-4271
aujourd	-4272
oreille	-4273
▁jambes	-4274
▁ordres	-4275
▁perdit	-4276
▁suffit	-4277
▁touche	-4278
▁venues	-4279
espérais	-4280
▁contrat	-4281
▁célibat	-4282
▁descend	-4283
▁déjeuné	-4284
▁exemple	-4285
▁fassiez	-4286
▁imaginé	-4287
▁rattrap	-4288
▁reconnu	-4289
▁retirer	-4290
▁réalité	-4291
▁sentais	-4292
▁suivant	-4293
▁timbres	-4294
interromp	-4295
▁Quelques	-4296
▁détendre	-4297
▁habitude	-4298
▁pantalon	-4299
▁prendrai	-4300
▁présence	-4301
▁remonter	-4302
▁resterai	-4303
▁sandwich	-4304
▁viendrai	-4305
▁abandonner	-4306
▁concentrer	-4307
▁couramment	-4308
▁totalement	-4309
▁température	-4310
▁tremblement	-4311
▁démissionner	-4312
up	-4313
éh	-4314
ami	-4315
dul	-4316
ock	-4317
âce	-4318
▁Am	-4319
▁Se	-4320
▁câ	-4321
ards	-4322
ares	-4323
itez	-4324
obli	-4325
quez	-4326
tons	-4327
tuel	-4328
▁ais	-4329
▁gal	-4330
▁log	-4331
ageux	-4332
aviez	-4333
ciper	-4334
cipit	-4335
ignit	-4336
mbres	-4337
orité	-4338
▁Appr	-4339
▁Leur	-4340
▁banc	-4341
▁club	-4342
▁forc	-4343
▁prot	-4344
▁traî	-4345
▁vase	-4346
▁viré	-4347
▁éloi	-4348
espoir	-4349
quante	-4350
économ	-4351
▁Chois	-4352
▁appuy	-4353
▁bleue	-4354
▁coups	-4355
▁couru	-4356
▁désir	-4357
▁effic	-4358
▁fantô	-4359
▁grimp	-4360
▁hiver	-4361
▁naiss	-4362
▁pizza	-4363
▁plans	-4364
▁queue	-4365
▁venez	-4366
▁Étais	-4367
robable	-4368
▁allong	-4369
▁cesser	-4370
▁couver	-4371
▁disiez	-4372
▁montra	-4373
▁normal	-4374
▁propri	-4375
▁regret	-4376
▁représ	-4377
▁sauter	-4378
▁sortes	-4379
▁économ	-4380
incendie	-4381
utiliser	-4382
éteindre	-4383
▁appelle	-4384
▁arrière	-4385
▁asseoir	-4386
▁curieux	-4387
▁discuté	-4388
▁meurtre	-4389
▁nourrir	-4390
▁occuper	-4391
▁petites	-4392
▁pouviez	-4393
▁théâtre	-4394
enseigner	-4395
▁Aimerais	-4396
▁Aimeriez	-4397
▁capitale	-4398
▁conduite	-4399
▁innocent	-4400
▁parvenir	-4401
▁précipit	-4402
▁répondit	-4403
appellerai	-4404
▁embarrass	-4405
▁promesses	-4406
▁réveillée	-4407
▁souhaiterais	-4408
000	-4409
ara	-4410
auc	-4411
oré	-4412
tiv	-4413
▁aî	-4414
▁gl	-4415
▁ja	-4416
cens	-4417
ecte	-4418
oign	-4419
omac	-4420
oyée	-4421
écut	-4422
▁Pas	-4423
▁Sou	-4424
▁cre	-4425
▁fab	-4426
▁lou	-4427
▁tar	-4428
ibles	-4429
illon	-4430
ousse	-4431
selle	-4432
éhens	-4433
▁avis	-4434
▁enqu	-4435
▁hist	-4436
▁ivre	-4437
▁liqu	-4438
▁racc	-4439
▁ridi	-4440
▁sain	-4441
▁sors	-4442
chette	-4443
ologie	-4444
vement	-4445
▁Compr	-4446
▁Entre	-4447
▁Terre	-4448
▁bague	-4449
▁champ	-4450
▁durer	-4451
▁fleur	-4452
▁monté	-4453
▁négli	-4454
▁parmi	-4455
▁procé	-4456
▁rende	-4457
▁saoul	-4458
▁toile	-4459
▁usage	-4460
▁visit	-4461
▁étage	-4462
▁arrang	-4463
▁arriva	-4464
▁auprès	-4465
▁coffre	-4466
▁mignon	-4467
▁nation	-4468
▁paress	-4469
▁poupée	-4470
▁quarti	-4471
▁saison	-4472
▁verrai	-4473
▁colline	-4474
▁croyais	-4475
▁disposé	-4476
▁dépensé	-4477
▁efforts	-4478
▁laissée	-4479
▁membres	-4480
▁parvenu	-4481
▁ressens	-4482
▁suspect	-4483
titutrice	-4484
▁chanteur	-4485
▁commerci	-4486
▁déranger	-4487
▁entendue	-4488
▁poursuiv	-4489
▁semblent	-4490
▁vieilles	-4491
▁spectacle	-4492
▁suffisant	-4493
▁difficulté	-4494
▁improbable	-4495
▁plaisanter	-4496
▁population	-4497
▁dérangerait	-4498
▁enseignante	-4499
▁imagination	-4500
▁comportement	-4501
▁intelligente	-4502
ox	-4503
aka	-4504
ina	-4505
▁gê	-4506
rite	-4507
▁Bon	-4508
▁blâ	-4509
▁dor	-4510
▁foi	-4511
▁ras	-4512
▁sim	-4513
aimer	-4514
obile	-4515
oient	-4516
étude	-4517
▁adul	-4518
▁assi	-4519
▁blag	-4520
▁cein	-4521
▁déch	-4522
▁furi	-4523
▁leva	-4524
▁mode	-4525
▁rela	-4526
▁remb	-4527
avance	-4528
tiques	-4529
venues	-4530
▁Crois	-4531
▁Parle	-4532
▁Tenez	-4533
▁amour	-4534
▁cents	-4535
▁coûté	-4536
▁dérob	-4537
▁finan	-4538
▁fumée	-4539
▁loyer	-4540
▁rejet	-4541
▁relig	-4542
▁rompu	-4543
▁vendu	-4544
iration	-4545
▁auquel	-4546
▁craign	-4547
▁invent	-4548
▁joueur	-4549
▁planté	-4550
▁poster	-4551
▁pressé	-4552
▁vivant	-4553
▁éteint	-4554
llemagne	-4555
▁article	-4556
▁complet	-4557
▁enfance	-4558
▁inutile	-4559
▁monnaie	-4560
▁parcour	-4561
▁progrès	-4562
▁puisses	-4563
▁rendrai	-4564
▁renvers	-4565
▁reviens	-4566
▁Disposez	-4567
▁ailleurs	-4568
▁convainc	-4569
▁emprunté	-4570
▁pareille	-4571
▁pouvions	-4572
▁retourne	-4573
▁veuillez	-4574
Angleterre	-4575
▁assurance	-4576
▁contrarié	-4577
▁excellent	-4578
▁naissance	-4579
▁rappelles	-4580
▁rejoindre	-4581
▁récemment	-4582
▁différents	-4583
▁participer	-4584
▁satisfaite	-4585
ni	-4586
ût	-4587
fie	-4588
gez	-4589
gué	-4590
her	-4591
ive	-4592
man	-4593
nom	-4594
▁fe	-4595
ancé	-4596
chés	-4597
eule	-4598
ncid	-4599
oles	-4600
oncé	-4601
onde	-4602
orde	-4603
riel	-4604
saka	-4605
▁Lui	-4606
▁air	-4607
▁bri	-4608
▁gui	-4609
▁pil	-4610
▁épr	-4611
chait	-4612
chent	-4613
viens	-4614
▁Mais	-4615
▁Prom	-4616
▁bais	-4617
▁céré	-4618
▁dîné	-4619
▁empê	-4620
▁gren	-4621
▁pose	-4622
▁vain	-4623
aimais	-4624
idence	-4625
isions	-4626
ouille	-4627
érence	-4628
étaire	-4629
▁Toute	-4630
▁banan	-4631
▁barbe	-4632
▁coupé	-4633
▁favor	-4634
▁lourd	-4635
▁mêmes	-4636
▁ravie	-4637
▁repro	-4638
▁récup	-4639
▁tomba	-4640
essence	-4641
▁Passez	-4642
▁ambiti	-4643
▁cassée	-4644
▁congés	-4645
▁excuse	-4646
▁failli	-4647
▁mortes	-4648
▁négoci	-4649
▁photog	-4650
▁pleure	-4651
▁rendue	-4652
▁traité	-4653
ouillard	-4654
▁deviner	-4655
▁raisons	-4656
▁refuser	-4657
▁rentrée	-4658
▁souffle	-4659
▁souffre	-4660
▁trouves	-4661
▁apprécie	-4662
▁enseigné	-4663
▁parfaite	-4664
▁tendance	-4665
ordinateur	-4666
▁apparence	-4667
▁contrôler	-4668
▁dernières	-4669
▁embrasser	-4670
▁intention	-4671
▁brouillard	-4672
▁formulaire	-4673
▁volontaire	-4674
▁chaussettes	-4675
▁connaissais	-4676
▁quotidienne	-4677
▁augmentation	-4678
ern	-4679
ind	-4680
pte	-4681
ust	-4682
cins	-4683
fond	-4684
isme	-4685
oint	-4686
oyés	-4687
usée	-4688
èter	-4689
éant	-4690
▁Jam	-4691
▁Ouv	-4692
▁Rép	-4693
▁cra	-4694
▁phy	-4695
▁uns	-4696
▁web	-4697
chiez	-4698
ituer	-4699
ulter	-4700
uteur	-4701
▁Desc	-4702
▁clef	-4703
▁clim	-4704
▁fous	-4705
▁grav	-4706
▁lune	-4707
▁plat	-4708
▁pneu	-4709
▁somm	-4710
entraî	-4711
estion	-4712
jouter	-4713
losion	-4714
▁Faire	-4715
▁Jusqu	-4716
▁ayons	-4717
▁coiff	-4718
▁crier	-4719
▁dress	-4720
▁envis	-4721
▁faite	-4722
▁fiers	-4723
▁flics	-4724
▁futur	-4725
▁héros	-4726
▁illég	-4727
▁juger	-4728
▁large	-4729
▁lâche	-4730
▁léger	-4731
▁manif	-4732
▁oppos	-4733
▁passa	-4734
▁simil	-4735
▁surve	-4736
▁tenue	-4737
▁élect	-4738
enseign	-4739
envoyer	-4740
étaient	-4741
▁Chacun	-4742
▁Jamais	-4743
▁avenir	-4744
▁décédé	-4745
▁ferons	-4746
▁mettez	-4747
▁moteur	-4748
▁neiger	-4749
▁remise	-4750
▁retiré	-4751
▁souris	-4752
▁énorme	-4753
▁chances	-4754
▁command	-4755
▁déprimé	-4756
▁examens	-4757
▁ferions	-4758
▁mangent	-4759
▁passait	-4760
▁soudain	-4761
▁valises	-4762
▁aimerais	-4763
▁ceinture	-4764
▁demandez	-4765
▁distingu	-4766
▁déménagé	-4767
▁efficace	-4768
▁empêcher	-4769
▁médecins	-4770
▁soudaine	-4771
▁atteindre	-4772
▁autorisée	-4773
▁commettre	-4774
▁contacter	-4775
▁escaliers	-4776
▁histoires	-4777
▁prudentes	-4778
▁puissions	-4779
▁respecter	-4780
▁étudiante	-4781
▁préférable	-4782
▁célibataire	-4783
▁rencontrées	-4784
▁travaillent	-4785
th	-4786
uf	-4787
ama	-4788
apa	-4789
cis	-4790
ice	-4791
mar	-4792
ome	-4793
sey	-4794
tra	-4795
tée	-4796
uir	-4797
▁Hé	-4798
▁lâ	-4799
aler	-4800
diez	-4801
elon	-4802
erve	-4803
loge	-4804
moin	-4805
oter	-4806
uler	-4807
vres	-4808
▁gaz	-4809
▁neu	-4810
améli	-4811
chose	-4812
cture	-4813
euble	-4814
omage	-4815
érant	-4816
▁Jack	-4817
▁bête	-4818
▁docu	-4819
▁défi	-4820
▁méth	-4821
▁serp	-4822
▁site	-4823
▁taux	-4824
ennemi	-4825
étique	-4826
▁Selon	-4827
▁armes	-4828
▁casse	-4829
▁crise	-4830
▁crème	-4831
▁demie	-4832
▁débat	-4833
▁gardé	-4834
▁injus	-4835
▁poème	-4836
▁produ	-4837
▁sable	-4838
▁victi	-4839
oixante	-4840
onsieur	-4841
▁Assure	-4842
▁Sommes	-4843
▁amusée	-4844
▁baiser	-4845
▁désire	-4846
▁entier	-4847
▁esprit	-4848
▁limite	-4849
▁nuages	-4850
▁ouvrit	-4851
▁plaign	-4852
▁points	-4853
▁poulet	-4854
▁restée	-4855
▁sembla	-4856
▁servir	-4857
▁sommet	-4858
▁telles	-4859
▁touché	-4860
▁violon	-4861
▁vivons	-4862
▁éclata	-4863
attraper	-4864
issement	-4865
ncidence	-4866
onnement	-4867
▁Continu	-4868
▁Devrais	-4869
▁Jackson	-4870
▁Pendant	-4871
▁absence	-4872
▁château	-4873
▁conclus	-4874
▁facture	-4875
▁frapper	-4876
▁fromage	-4877
▁justice	-4878
▁réalisé	-4879
▁Japonais	-4880
▁courriel	-4881
▁nerveuse	-4882
▁professi	-4883
▁promener	-4884
▁quartier	-4885
▁traversé	-4886
▁capitaine	-4887
▁compliqué	-4888
▁découvrir	-4889
▁pardonner	-4890
▁représent	-4891
▁serviette	-4892
▁vaisselle	-4893
▁instituteur	-4894
▁raisonnable	-4895
..	-4896
arr	-4897
bri	-4898
bum	-4899
tim	-4900
uré	-4901
èce	-4902
▁An	-4903
▁os	-4904
auff	-4905
dent	-4906
ecté	-4907
quin	-4908
teau	-4909
èner	-4910
ètes	-4911
▁cla	-4912
▁gor	-4913
▁mic	-4914
▁ski	-4915
▁Éte	-4916
appel	-4917
herbe	-4918
irurg	-4919
monie	-4920
méric	-4921
ortun	-4922
ouvre	-4923
▁Père	-4924
▁aisé	-4925
▁crim	-4926
▁mous	-4927
▁papa	-4928
▁patr	-4929
▁péri	-4930
▁quar	-4931
▁élég	-4932
achète	-4933
auriez	-4934
dition	-4935
frique	-4936
humeur	-4937
reuses	-4938
ximité	-4939
▁Assey	-4940
▁cardi	-4941
▁copie	-4942
▁dissi	-4943
▁déton	-4944
▁enreg	-4945
▁malch	-4946
▁natif	-4947
▁prêté	-4948
▁Étiez	-4949
article	-4950
erreurs	-4951
estomac	-4952
habitue	-4953
obtenir	-4954
session	-4955
étagère	-4956
▁Seriez	-4957
▁comité	-4958
▁croyez	-4959
▁essaie	-4960
▁fautes	-4961
▁firent	-4962
▁frappa	-4963
▁jouait	-4964
▁rempla	-4965
▁riches	-4966
▁régler	-4967
▁sentie	-4968
▁sienne	-4969
▁sieste	-4970
▁trouva	-4971
▁vivait	-4972
▁énervé	-4973
▁époque	-4974
▁Dépêche	-4975
▁aurions	-4976
▁blanche	-4977
▁correct	-4978
▁diplômé	-4979
▁dérangé	-4980
▁financi	-4981
▁invitée	-4982
▁laisses	-4983
▁ouvrage	-4984
▁partage	-4985
▁partiel	-4986
▁plainte	-4987
▁trouvée	-4988
▁viennes	-4989
attendrai	-4990
attention	-4991
lications	-4992
▁Malheure	-4993
▁capables	-4994
▁cherches	-4995
▁deuxième	-4996
▁développ	-4997
▁environs	-4998
▁patience	-4999
▁rappelez	-5000
▁relation	-5001
▁réfléchi	-5002
▁savaient	-5003
▁tableaux	-5004
▁écrivain	-5005
▁chauffeur	-5006
▁conscient	-5007
▁fatiguées	-5008
▁proximité	-5009
▁regretter	-5010
▁reviendra	-5011
▁étrangère	-5012
▁contrariée	-5013
▁convaincue	-5014
▁fonctionné	-5015
▁impression	-5016
▁directement	-5017
▁impressionnée	-5018
▁Malheureusement	-5019
ju	-5020
lie	-5021
lés	-5022
oll	-5023
onf	-5024
tif	-5025
▁Du	-5026
agée	-5027
anou	-5028
aver	-5029
ctes	-5030
idez	-5031
ieds	-5032
irez	-5033
neuf	-5034
uiss	-5035
élic	-5036
▁adv	-5037
▁dél	-5038
▁hyp	-5039
▁ing	-5040
▁mén	-5041
▁ram	-5042
▁suc	-5043
accus	-5044
agnes	-5045
choir	-5046
estre	-5047
onges	-5048
ordre	-5049
ormer	-5050
ottes	-5051
▁Cess	-5052
▁dame	-5053
▁douz	-5054
▁enle	-5055
▁mépr	-5056
▁mété	-5057
▁saut	-5058
▁scol	-5059
▁tech	-5060
▁terr	-5061
▁voté	-5062
aiment	-5063
endrez	-5064
entrer	-5065
onneur	-5066
ricité	-5067
▁camar	-5068
▁cessé	-5069
▁charm	-5070
▁condu	-5071
▁dégoû	-5072
▁feras	-5073
▁front	-5074
▁génie	-5075
▁longs	-5076
▁louer	-5077
▁maire	-5078
▁malin	-5079
▁menac	-5080
▁parte	-5081
▁polit	-5082
▁quels	-5083
▁roses	-5084
▁rêver	-5085
▁sonné	-5086
▁verti	-5087
▁écras	-5088
jection	-5089
utilise	-5090
▁Améric	-5091
▁Europe	-5092
▁Retour	-5093
▁causer	-5094
▁chatte	-5095
▁donnez	-5096
▁excité	-5097
▁expert	-5098
▁fermés	-5099
▁gueule	-5100
▁rendra	-5101
▁restes	-5102
▁rouges	-5103
▁souper	-5104
▁treize	-5105
▁utilis	-5106
allemand	-5107
apprends	-5108
ducation	-5109
habituer	-5110
échapper	-5111
▁allions	-5112
▁annuler	-5113
▁appelée	-5114
▁liquide	-5115
▁passera	-5116
▁pauvres	-5117
▁personn	-5118
▁plantes	-5119
▁sachiez	-5120
▁superbe	-5121
▁utilisé	-5122
▁échappé	-5123
étudiants	-5124
▁Laquelle	-5125
▁aussitôt	-5126
▁bienvenu	-5127
▁demandes	-5128
▁mondiale	-5129
▁mouchoir	-5130
▁oreilles	-5131
▁particip	-5132
▁patronne	-5133
▁produits	-5134
▁présenté	-5135
▁regardes	-5136
▁sensible	-5137
▁supposée	-5138
▁bienvenue	-5139
▁certaines	-5140
▁cigarette	-5141
▁cinquante	-5142
▁descendre	-5143
▁délicieux	-5144
▁persuader	-5145
▁conférence	-5146
▁disponible	-5147
▁distinguer	-5148
▁photograph	-5149
▁recommandé	-5150
▁changements	-5151
▁gentillesse	-5152
▁importantes	-5153
▁merveilleuse	-5154
01	-5155
hi	-5156
enu	-5157
gét	-5158
ias	-5159
ots	-5160
rog	-5161
vés	-5162
▁Di	-5163
▁mê	-5164
▁ps	-5165
ades	-5166
anse	-5167
atte	-5168
cent	-5169
empl	-5170
enci	-5171
hous	-5172
huit	-5173
lant	-5174
orig	-5175
quip	-5176
tent	-5177
trod	-5178
érés	-5179
▁100	-5180
▁Non	-5181
▁Oui	-5182
▁Rec	-5183
▁cat	-5184
▁dot	-5185
▁gam	-5186
▁lab	-5187
▁lic	-5188
▁méc	-5189
▁rob	-5190
▁tat	-5191
alifi	-5192
autor	-5193
eures	-5194
ionne	-5195
isées	-5196
talie	-5197
échec	-5198
écris	-5199
ôtres	-5200
▁Cond	-5201
▁Mère	-5202
▁agit	-5203
▁bruy	-5204
▁dors	-5205
▁fraî	-5206
▁inst	-5207
▁lavé	-5208
▁lois	-5209
▁onze	-5210
▁puni	-5211
aleine	-5212
andail	-5213
arrêta	-5214
avions	-5215
ternet	-5216
▁Arriv	-5217
▁Maman	-5218
▁Osaka	-5219
▁alent	-5220
▁amené	-5221
▁basse	-5222
▁cuill	-5223
▁embau	-5224
▁forts	-5225
▁irons	-5226
▁loupé	-5227
▁miens	-5228
▁mordu	-5229
▁passi	-5230
▁perds	-5231
▁rater	-5232
▁scène	-5233
▁souri	-5234
▁tante	-5235
▁terme	-5236
▁élève	-5237
cidents	-5238
housias	-5239
▁Cessez	-5240
▁Lorsqu	-5241
▁animal	-5242
▁annulé	-5243
▁censée	-5244
▁charge	-5245
▁courte	-5246
▁destin	-5247
▁décour	-5248
▁ennemi	-5249
▁minuit	-5250
▁mourut	-5251
▁offens	-5252
▁promit	-5253
▁rempli	-5254
▁retira	-5255
▁sentit	-5256
▁signer	-5257
▁sourit	-5258
▁tiroir	-5259
▁éclair	-5260
▁épaule	-5261
entendis	-5262
onnèrent	-5263
économie	-5264
▁cadeaux	-5265
▁chirurg	-5266
▁clients	-5267
▁employé	-5268
▁gentils	-5269
▁marteau	-5270
▁meubles	-5271
▁paroles	-5272
▁proches	-5273
▁protest	-5274
▁prétend	-5275
▁risques	-5276
▁surpren	-5277
▁sympath	-5278
▁tromper	-5279
oublierai	-5280
▁chandail	-5281
▁contents	-5282
▁grossier	-5283
▁préfères	-5284
▁pénétrer	-5285
▁réaliser	-5286
▁trouvent	-5287
abandonner	-5288
▁Plusieurs	-5289
▁chanceuse	-5290
▁conseille	-5291
▁demandais	-5292
▁effectuer	-5293
▁mensonges	-5294
▁montrerai	-5295
▁retrouver	-5296
▁compréhens	-5297
▁travailles	-5298
▁étrangères	-5299
apprécierais	-5300
▁confortable	-5301
▁connaissent	-5302
▁médicaments	-5303
▁prisonniers	-5304
▁pratiquement	-5305
▁supplémentaire	-5306
ow	-5307
ber	-5308
die	-5309
imm	-5310
lam	-5311
obs	-5312
obé	-5313
rin	-5314
ute	-5315
▁CD	-5316
▁Dé	-5317
▁ha	-5318
▁th	-5319
aint	-5320
ates	-5321
cles	-5322
dies	-5323
elez	-5324
gies	-5325
inte	-5326
offe	-5327
opri	-5328
sept	-5329
êter	-5330
▁cad	-5331
▁nag	-5332
▁équ	-5333
armée	-5334
ennuy	-5335
gique	-5336
ignes	-5337
venez	-5338
écart	-5339
▁Cher	-5340
▁Lune	-5341
▁Prés	-5342
▁anti	-5343
▁aper	-5344
▁bomb	-5345
▁indé	-5346
▁peau	-5347
▁ride	-5348
▁sout	-5349
▁tués	-5350
▁âgée	-5351
▁égal	-5352
▁épar	-5353
allait	-5354
emprun	-5355
issant	-5356
onnant	-5357
▁Cesse	-5358
▁affam	-5359
▁album	-5360
▁coupe	-5361
▁douce	-5362
▁entra	-5363
▁excit	-5364
▁exige	-5365
▁fabri	-5366
▁ferma	-5367
▁fûmes	-5368
▁ingén	-5369
▁jaune	-5370
▁joues	-5371
▁lampe	-5372
▁leçon	-5373
▁maman	-5374
▁moral	-5375
▁navig	-5376
▁pêche	-5377
▁rasse	-5378
▁tâche	-5379
▁végét	-5380
▁âgées	-5381
aiderai	-5382
censeur	-5383
essayez	-5384
ignorer	-5385
▁Croyez	-5386
▁Demand	-5387
▁Ouvrez	-5388
▁ancien	-5389
▁beauté	-5390
▁chanté	-5391
▁connue	-5392
▁courut	-5393
▁cousin	-5394
▁décoll	-5395
▁défaut	-5396
▁expéri	-5397
▁fleuve	-5398
▁folles	-5399
▁matéri	-5400
▁offert	-5401
▁perdue	-5402
▁poches	-5403
▁prénom	-5404
▁quitte	-5405
▁restés	-5406
▁romans	-5407
▁réparé	-5408
▁salade	-5409
▁tenter	-5410
▁trompe	-5411
▁vieill	-5412
▁visité	-5413
▁épousé	-5414
endormir	-5415
essayais	-5416
▁Parlons	-5417
▁allongé	-5418
▁arrêtée	-5419
▁aveugle	-5420
▁billets	-5421
▁blagues	-5422
▁faisiez	-5423
▁fournir	-5424
▁horreur	-5425
▁injuste	-5426
▁lecture	-5427
▁longues	-5428
▁méchant	-5429
▁obligés	-5430
▁passage	-5431
▁plafond	-5432
▁reviend	-5433
▁sentait	-5434
▁solaire	-5435
▁traduit	-5436
Allemagne	-5437
▁Apportez	-5438
▁Continue	-5439
▁Internet	-5440
▁aimeriez	-5441
▁allemand	-5442
▁blessées	-5443
▁commande	-5444
▁concerne	-5445
▁corriger	-5446
▁effrayée	-5447
▁fassions	-5448
▁gratuite	-5449
▁marchand	-5450
▁préférez	-5451
▁quantité	-5452
▁regardez	-5453
▁rembours	-5454
▁sûrement	-5455
▁consulter	-5456
▁directeur	-5457
▁déménager	-5458
▁emplettes	-5459
▁faisaient	-5460
▁française	-5461
▁interromp	-5462
▁impatiente	-5463
▁possession	-5464
▁reviendrai	-5465
▁travaillez	-5466
▁téléphoner	-5467
inconvénient	-5468
▁information	-5469
▁Heureusement	-5470
▁instructions	-5471
▁scientifique	-5472
sé	-5473
ât	-5474
arc	-5475
aud	-5476
bon	-5477
emm	-5478
ili	-5479
lor	-5480
lou	-5481
mor	-5482
mpl	-5483
ota	-5484
oue	-5485
rip	-5486
til	-5487
uff	-5488
vis	-5489
▁Oh	-5490
fiée	-5491
lier	-5492
ouff	-5493
pare	-5494
ueil	-5495
uves	-5496
▁Toi	-5497
▁abe	-5498
▁act	-5499
▁niv	-5500
▁pel	-5501
▁rit	-5502
▁sin	-5503
▁sév	-5504
▁tex	-5505
agers	-5506
aides	-5507
angez	-5508
encre	-5509
endue	-5510
idées	-5511
ifier	-5512
lions	-5513
order	-5514
ortes	-5515
ourdi	-5516
table	-5517
▁Pres	-5518
▁Tour	-5519
▁choc	-5520
▁doté	-5521
▁drap	-5522
▁heur	-5523
▁lent	-5524
▁myst	-5525
▁pomp	-5526
▁pâle	-5527
▁rang	-5528
▁rues	-5529
▁surp	-5530
anches	-5531
atrice	-5532
chauff	-5533
occupe	-5534
ograph	-5535
▁Enfin	-5536
▁Juste	-5537
▁Mange	-5538
▁criti	-5539
▁croir	-5540
▁danse	-5541
▁décev	-5542
▁fêtes	-5543
▁mérit	-5544
▁parla	-5545
▁piège	-5546
▁plant	-5547
▁plomb	-5548
▁prati	-5549
▁procu	-5550
▁sales	-5551
▁sucré	-5552
▁tapis	-5553
▁virer	-5554
mençons	-5555
pendant	-5556
▁acheta	-5557
▁acteur	-5558
▁aimons	-5559
▁aurons	-5560
▁détail	-5561
▁fiable	-5562
▁forces	-5563
▁foudre	-5564
▁ignore	-5565
▁lignes	-5566
▁lourde	-5567
▁miroir	-5568
▁niveau	-5569
▁permet	-5570
▁portez	-5571
▁ralent	-5572
▁remède	-5573
▁transf	-5574
▁témoin	-5575
▁verres	-5576
▁voyagé	-5577
▁épuisé	-5578
▁étasun	-5579
▁éviter	-5580
emporter	-5581
habiller	-5582
▁Appelez	-5583
▁Apporte	-5584
▁Désolée	-5585
▁Prenons	-5586
▁Presque	-5587
▁aiderai	-5588
▁apprend	-5589
▁considé	-5590
▁contrib	-5591
▁crimine	-5592
▁dessert	-5593
▁divorcé	-5594
▁habillé	-5595
▁impuiss	-5596
▁inviter	-5597
▁logique	-5598
▁parlait	-5599
▁portent	-5600
▁prenons	-5601
▁voleurs	-5602
▁volonté	-5603
▁étoiles	-5604
adorerais	-5605
▁Espérons	-5606
▁continua	-5607
▁dépourvu	-5608
▁entendit	-5609
▁familier	-5610
▁habituée	-5611
▁inquiète	-5612
▁magasins	-5613
▁malchanc	-5614
▁millions	-5615
▁objectif	-5616
▁physique	-5617
▁pleurait	-5618
▁ponctuel	-5619
▁présents	-5620
▁recevoir	-5621
▁ridicule	-5622
▁soixante	-5623
▁violence	-5624
appartient	-5625
▁cherchais	-5626
▁courageux	-5627
▁cuisinier	-5628
▁disposais	-5629
▁montagnes	-5630
▁passagers	-5631
▁récupérer	-5632
▁troisième	-5633
▁Commençons	-5634
▁impatience	-5635
▁infirmière	-5636
▁travaillons	-5637
▁soudainement	-5638
▁quotidiennement	-5639
abs	-5640
aly	-5641
imé	-5642
ook	-5643
uté	-5644
ych	-5645
êtu	-5646
▁Ré	-5647
admi	-5648
itif	-5649
léph	-5650
oide	-5651
oler	-5652
▁Réf	-5653
▁Seu	-5654
▁amp	-5655
▁cis	-5656
▁clô	-5657
▁idé	-5658
▁pes	-5659
▁rév	-5660
▁Étu	-5661
▁élu	-5662
agnol	-5663
ament	-5664
anges	-5665
assur	-5666
escal	-5667
issue	-5668
poser	-5669
tiens	-5670
▁Dépê	-5671
▁Papa	-5672
▁Perm	-5673
▁Trav	-5674
▁ball	-5675
▁chic	-5676
▁doué	-5677
▁garé	-5678
▁gâte	-5679
▁insp	-5680
▁mati	-5681
▁nord	-5682
▁pull	-5683
▁requ	-5684
▁rôle	-5685
▁stri	-5686
▁surm	-5687
▁vole	-5688
admets	-5689
humour	-5690
oiseau	-5691
▁Aidez	-5692
▁Avant	-5693
▁Lâche	-5694
▁Rends	-5695
▁Trouv	-5696
▁cesse	-5697
▁cuire	-5698
▁fâché	-5699
▁moder	-5700
▁noirs	-5701
▁payée	-5702
▁poule	-5703
▁répar	-5704
▁sauté	-5705
▁tenez	-5706
▁types	-5707
▁vente	-5708
▁voter	-5709
▁Écris	-5710
achèter	-5711
conques	-5712
intérêt	-5713
issante	-5714
▁allumé	-5715
▁averti	-5716
▁blâmer	-5717
▁cambri	-5718
▁client	-5719
▁consom	-5720
▁couple	-5721
▁exprès	-5722
▁fortes	-5723
▁froide	-5724
▁hurler	-5725
▁panier	-5726
▁pareil	-5727
▁places	-5728
▁restez	-5729
▁villes	-5730
▁voient	-5731
▁Étasun	-5732
apporter	-5733
▁baisser	-5734
▁ciseaux	-5735
▁communi	-5736
▁coûtera	-5737
▁distrib	-5738
▁détruit	-5739
▁fraîche	-5740
▁hôpital	-5741
▁illégal	-5742
▁intérêt	-5743
▁langage	-5744
▁materne	-5745
▁miracle	-5746
▁méthode	-5747
▁naturel	-5748
▁options	-5749
▁planète	-5750
▁pleuvra	-5751
▁prépare	-5752
▁prévenu	-5753
▁raconté	-5754
▁rendent	-5755
▁ressour	-5756
▁secours	-5757
▁suggéré	-5758
▁touchez	-5759
▁végétar	-5760
▁Écrivez	-5761
▁Essayons	-5762
▁apporter	-5763
▁arrivées	-5764
▁collecti	-5765
▁concours	-5766
▁continue	-5767
▁disposes	-5768
▁domicile	-5769
▁locuteur	-5770
▁pleuvait	-5771
▁prévenir	-5772
▁prévoyez	-5773
▁remercie	-5774
▁souvenez	-5775
▁accidents	-5776
▁ambitieux	-5777
▁américain	-5778
▁autorisés	-5779
▁cérémonie	-5780
▁paresseux	-5781
▁similaire	-5782
▁arriverait	-5783
▁enthousias	-5784
▁entretenir	-5785
▁fourchette	-5786
▁meilleures	-5787
▁rencontres	-5788
▁suggestion	-5789
▁surveiller	-5790
▁trouverais	-5791
▁connaissons	-5792
▁constamment	-5793
▁quelconques	-5794
▁explications	-5795
▁possibilités	-5796
▁signification	-5797
▁incroyablement	-5798
▁supplémentaires	-5799
ym	-5800
arg	-5801
dem	-5802
gts	-5803
ige	-5804
isa	-5805
tro	-5806
ôts	-5807
▁Fu	-5808
▁tâ	-5809
chon	-5810
dire	-5811
ervé	-5812
inet	-5813
lexe	-5814
lève	-5815
ueur	-5816
étit	-5817
▁Acc	-5818
▁Sal	-5819
▁aie	-5820
▁chè	-5821
▁out	-5822
▁raf	-5823
▁rêv	-5824
▁tas	-5825
aises	-5826
autom	-5827
cepti	-5828
huile	-5829
odeur	-5830
rants	-5831
écout	-5832
éreux	-5833
étage	-5834
▁Aide	-5835
▁Ceux	-5836
▁agir	-5837
▁appl	-5838
▁astu	-5839
▁côte	-5840
▁diam	-5841
▁déte	-5842
▁joie	-5843
▁miel	-5844
▁orig	-5845
▁perp	-5846
▁renv	-5847
▁rose	-5848
▁surf	-5849
▁tels	-5850
▁épic	-5851
ailles	-5852
espace	-5853
étoffe	-5854
▁Fumer	-5855
▁Ouvre	-5856
▁Trois	-5857
▁attir	-5858
▁cruel	-5859
▁effet	-5860
▁enter	-5861
▁félic	-5862
▁gants	-5863
▁image	-5864
▁incor	-5865
▁jouez	-5866
▁lapin	-5867
▁lisez	-5868
▁métro	-5869
▁objet	-5870
▁ouvre	-5871
▁psych	-5872
▁salon	-5873
▁soign	-5874
▁sonna	-5875
▁tarte	-5876
▁trahi	-5877
▁trico	-5878
▁Attrap	-5879
▁Canada	-5880
▁achevé	-5881
▁allais	-5882
▁calmes	-5883
▁casser	-5884
▁chargé	-5885
▁direct	-5886
▁dissim	-5887
▁forcer	-5888
▁invest	-5889
▁jouent	-5890
▁librai	-5891
▁mirent	-5892
▁pattes	-5893
▁sortis	-5894
▁transp	-5895
▁venait	-5896
abilités	-5897
applique	-5898
estation	-5899
▁achetée	-5900
▁avancer	-5901
▁charger	-5902
▁chevaux	-5903
▁culture	-5904
▁dorment	-5905
▁déclaré	-5906
▁emmener	-5907
▁furieux	-5908
▁galerie	-5909
▁informé	-5910
▁jalouse	-5911
▁licenci	-5912
▁manques	-5913
▁papiers	-5914
▁parties	-5915
▁passées	-5916
▁pourrai	-5917
▁qualité	-5918
▁retardé	-5919
▁soutien	-5920
▁urgence	-5921
éducation	-5922
▁accompli	-5923
▁amélioré	-5924
▁approche	-5925
▁boissons	-5926
▁consacré	-5927
▁cuillère	-5928
▁emporter	-5929
▁manières	-5930
▁obligées	-5931
▁opportun	-5932
▁prétendu	-5933
▁ressenti	-5934
▁retourné	-5935
▁stupides	-5936
▁éteindre	-5937
apprécient	-5938
▁chanteuse	-5939
▁considéré	-5940
▁déterminé	-5941
▁détestent	-5942
▁plaisante	-5943
accompagner	-5944
▁conditions	-5945
▁intéressés	-5946
▁recommanda	-5947
▁ressources	-5948
▁satisfaits	-5949
▁traduction	-5950
▁candidature	-5951
▁marchandises	-5952
ia	-5953
wa	-5954
él	-5955
abe	-5956
arv	-5957
his	-5958
lit	-5959
rud	-5960
rup	-5961
épr	-5962
▁gé	-5963
▁lo	-5964
▁py	-5965
agir	-5966
ança	-5967
deur	-5968
erté	-5969
kets	-5970
neur	-5971
onds	-5972
ondu	-5973
onst	-5974
uies	-5975
ulte	-5976
unes	-5977
▁Cor	-5978
▁aid	-5979
▁coc	-5980
▁cot	-5981
▁esc	-5982
▁fan	-5983
▁lut	-5984
▁mas	-5985
▁pat	-5986
▁sud	-5987
▁tax	-5988
▁éco	-5989
▁égo	-5990
▁île	-5991
anité	-5992
emmen	-5993
ignez	-5994
iseur	-5995
iteur	-5996
laire	-5997
oupes	-5998
raîch	-5999
ricul	-6000
ueill	-6001
uivre	-6002
ville	-6003
élect	-6004
étang	-6005
▁Bois	-6006
▁Comm	-6007
▁anci	-6008
▁barb	-6009
▁comb	-6010
▁cuit	-6011
▁diss	-6012
▁gout	-6013
▁math	-6014
▁quas	-6015
▁rédi	-6016
▁sacs	-6017
▁vies	-6018
▁véhi	-6019
admire	-6020
arvard	-6021
endons	-6022
entiel	-6023
excuse	-6024
gument	-6025
inaire	-6026
oblige	-6027
ouvrez	-6028
venait	-6029
époque	-6030
▁aient	-6031
▁atter	-6032
▁avert	-6033
▁chass	-6034
▁devra	-6035
▁exact	-6036
▁finit	-6037
▁grâce	-6038
▁ident	-6039
▁indis	-6040
▁influ	-6041
▁kilom	-6042
▁météo	-6043
▁obéir	-6044
▁poing	-6045
▁ramen	-6046
▁rever	-6047
▁récol	-6048
▁serré	-6049
▁situe	-6050
▁soins	-6051
▁sonne	-6052
▁tendu	-6053
▁tente	-6054
entendu	-6055
honnête	-6056
ifiques	-6057
onnerai	-6058
origine	-6059
quelles	-6060
ulaires	-6061
▁Regard	-6062
▁Rendez	-6063
▁amener	-6064
▁amical	-6065
▁amusés	-6066
▁ballon	-6067
▁choqué	-6068
▁croiss	-6069
▁diable	-6070
▁doigts	-6071
▁doulou	-6072
▁doutes	-6073
▁drogue	-6074
▁entrée	-6075
▁espère	-6076
▁essaye	-6077
▁façons	-6078
▁inconn	-6079
▁indiff	-6080
▁intent	-6081
▁intime	-6082
▁lèvres	-6083
▁mangea	-6084
▁modèle	-6085
▁oublie	-6086
▁paquet	-6087
▁pleuve	-6088
▁poison	-6089
▁polici	-6090
▁publié	-6091
▁pétrin	-6092
▁soucis	-6093
▁supéri	-6094
▁Éteins	-6095
▁écrite	-6096
▁élevés	-6097
agissait	-6098
▁Arrives	-6099
▁absente	-6100
▁adorent	-6101
▁ajouter	-6102
▁aliment	-6103
▁assisté	-6104
▁bonjour	-6105
▁cherché	-6106
▁clôture	-6107
▁collier	-6108
▁connait	-6109
▁consomm	-6110
▁déroulé	-6111
▁effront	-6112
▁emporté	-6113
▁enquête	-6114
▁entrepr	-6115
▁fermées	-6116
▁inventé	-6117
▁jumeaux	-6118
▁miennes	-6119
▁nettoyé	-6120
▁parlais	-6121
▁pensons	-6122
▁période	-6123
▁retenir	-6124
▁retrouv	-6125
▁science	-6126
▁secrète	-6127
▁sembler	-6128
▁tickets	-6129
▁évident	-6130
▁appropri	-6131
▁arrivent	-6132
▁boutique	-6133
▁candidat	-6134
▁correcte	-6135
▁document	-6136
▁douzaine	-6137
▁dépenser	-6138
▁endormie	-6139
▁exprimer	-6140
▁milliers	-6141
▁pression	-6142
▁profonde	-6143
▁prêterai	-6144
▁quarante	-6145
▁réussite	-6146
▁séjourné	-6147
▁trouvais	-6148
▁Continuez	-6149
▁cardiaque	-6150
▁cherchait	-6151
▁condition	-6152
▁contraire	-6153
▁disposent	-6154
▁débarrass	-6155
▁enseigner	-6156
▁librairie	-6157
▁mentionné	-6158
▁plastique	-6159
▁prononcer	-6160
▁préoccupe	-6161
▁rattraper	-6162
▁reconnais	-6163
▁regardait	-6164
▁reprendre	-6165
▁reprocher	-6166
▁souhaiter	-6167
▁souhaitez	-6168
▁surprises	-6169
▁séjourner	-6170
▁tentative	-6171
▁téléphoné	-6172
▁viendrait	-6173
▁voisinage	-6174
▁conducteur	-6175
▁invitation	-6176
▁maternelle	-6177
▁pourraient	-6178
▁journaliste	-6179
▁ordinateurs	-6180
▁ressemblent	-6181
▁réservation	-6182
▁plaisanterie	-6183
▁responsables	-6184
▁professionnel	-6185
ba	-6186
ji	-6187
of	-6188
sp	-6189
ana	-6190
azz	-6191
hir	-6192
och	-6193
opé	-6194
ran	-6195
ros	-6196
ste	-6197
upp	-6198
vez	-6199
éan	-6200
▁ap	-6201
▁bœ	-6202
▁mâ	-6203
ador	-6204
arma	-6205
auté	-6206
char	-6207
inez	-6208
ingt	-6209
istr	-6210
oind	-6211
outu	-6212
resp	-6213
roid	-6214
turé	-6215
uira	-6216
vécu	-6217
çait	-6218
étez	-6219
ôtés	-6220
▁Lis	-6221
▁Viv	-6222
▁bai	-6223
▁bol	-6224
▁cab	-6225
▁emm	-6226
▁hos	-6227
▁méd	-6228
chées	-6229
ctive	-6230
encer	-6231
entez	-6232
erons	-6233
incap	-6234
irmer	-6235
mbler	-6236
quent	-6237
roche	-6238
terie	-6239
tesse	-6240
érent	-6241
▁Util	-6242
▁abas	-6243
▁carb	-6244
▁doux	-6245
▁insc	-6246
▁modi	-6247
▁méch	-6248
▁ours	-6249
▁pann	-6250
▁perf	-6251
▁poll	-6252
▁rand	-6253
▁renf	-6254
▁régu	-6255
▁Éloi	-6256
alarme	-6257
heures	-6258
orient	-6259
ouvant	-6260
quatre	-6261
éclair	-6262
épaule	-6263
étions	-6264
▁Avons	-6265
▁bouge	-6266
▁bross	-6267
▁chuch	-6268
▁conte	-6269
▁côtés	-6270
▁drogu	-6271
▁délic	-6272
▁pourv	-6273
▁poète	-6274
▁pétro	-6275
▁remet	-6276
▁répét	-6277
▁signé	-6278
▁style	-6279
▁suggé	-6280
▁vague	-6281
automne	-6282
ription	-6283
érateur	-6284
▁Mangez	-6285
▁Suisse	-6286
▁adopté	-6287
▁adress	-6288
▁attrib	-6289
▁baissé	-6290
▁basket	-6291
▁camper	-6292
▁caméra	-6293
▁climat	-6294
▁donnée	-6295
▁double	-6296
▁forcée	-6297
▁garant	-6298
▁gardes	-6299
▁incons	-6300
▁libres	-6301
▁malgré	-6302
▁menace	-6303
▁mètres	-6304
▁natale	-6305
▁offici	-6306
▁offrir	-6307
▁passes	-6308
▁pointe	-6309
▁pronon	-6310
▁risqué	-6311
▁réflex	-6312
▁réfrig	-6313
▁sonner	-6314
▁tendit	-6315
▁termes	-6316
▁typhon	-6317
▁vaches	-6318
▁venais	-6319
▁échang	-6320
▁écoulé	-6321
acquérir	-6322
▁Afrique	-6323
▁Choisis	-6324
▁adultes	-6325
▁agressi	-6326
▁chaises	-6327
▁chargée	-6328
▁conditi	-6329
▁demeure	-6330
▁dispute	-6331
▁détendu	-6332
▁empêché	-6333
▁fichier	-6334
▁grenier	-6335
▁grosses	-6336
▁gâteaux	-6337
▁liberté	-6338
▁matière	-6339
▁mesures	-6340
▁mignons	-6341
▁mission	-6342
▁moderne	-6343
▁parliez	-6344
▁pelouse	-6345
▁pensiez	-6346
▁preniez	-6347
▁preuves	-6348
▁remplir	-6349
▁réduire	-6350
▁serions	-6351
▁serrure	-6352
▁soulagé	-6353
▁suicidé	-6354
▁survécu	-6355
▁talentu	-6356
▁voisine	-6357
▁vérifié	-6358
▁Demandez	-6359
▁Remettez	-6360
▁adorable	-6361
▁aimerait	-6362
▁attitude	-6363
▁blessure	-6364
▁chemises	-6365
▁cherchez	-6366
▁chinoise	-6367
▁divorcer	-6368
▁espérons	-6369
▁expliqua	-6370
▁familles	-6371
▁fantômes	-6372
▁invitées	-6373
▁menteuse	-6374
▁musicien	-6375
▁persuadé	-6376
▁produise	-6377
▁profiter	-6378
▁rafraîch	-6379
▁renversé	-6380
▁respecte	-6381
▁supposés	-6382
enseignant	-6383
incapacité	-6384
▁Attention	-6385
▁Président	-6386
▁alentours	-6387
▁centaines	-6388
▁descendit	-6389
▁désaccord	-6390
▁envisager	-6391
▁inhabitue	-6392
électricité	-6393
▁assistance	-6394
▁commençons	-6395
▁débrouillé	-6396
▁détonation	-6397
▁excellente	-6398
▁malentendu	-6399
▁surprenant	-6400
▁commentaire	-6401
▁destination	-6402
▁fantastique	-6403
▁satisfaites	-6404
▁institutrice	-6405
▁responsabilités	-6406
ip	-6407
ua	-6408
în	-6409
amp	-6410
ash	-6411
lut	-6412
léb	-6413
ret	-6414
urr	-6415
èse	-6416
▁US	-6417
▁sh	-6418
▁sè	-6419
York	-6420
arce	-6421
gnez	-6422
itre	-6423
nons	-6424
obsc	-6425
omis	-6426
oyen	-6427
ries	-6428
shir	-6429
tage	-6430
tive	-6431
uclé	-6432
▁Cal	-6433
▁Env	-6434
▁Exp	-6435
▁Hab	-6436
▁Rac	-6437
▁bav	-6438
▁lux	-6439
▁ong	-6440
▁pus	-6441
▁pér	-6442
▁reb	-6443
▁red	-6444
▁siè	-6445
▁tal	-6446
alisé	-6447
amuse	-6448
aules	-6449
chite	-6450
ctron	-6451
essai	-6452
expos	-6453
intes	-6454
irais	-6455
leure	-6456
objet	-6457
océan	-6458
offre	-6459
organ	-6460
osité	-6461
oyées	-6462
reint	-6463
rigez	-6464
tence	-6465
uirai	-6466
uisit	-6467
écrit	-6468
înmes	-6469
▁abat	-6470
▁code	-6471
▁gagn	-6472
▁inse	-6473
▁inté	-6474
▁mass	-6475
▁moti	-6476
▁mout	-6477
▁mouv	-6478
▁mène	-6479
▁pani	-6480
▁poil	-6481
▁pros	-6482
▁rich	-6483
▁siff	-6484
▁soli	-6485
▁vote	-6486
aucune	-6487
ettons	-6488
ingues	-6489
issage	-6490
ophone	-6491
uisait	-6492
vaisse	-6493
venant	-6494
▁Bonne	-6495
▁Laiss	-6496
▁Lisez	-6497
▁Monte	-6498
▁Oubli	-6499
▁Rempl	-6500
▁Saint	-6501
▁assey	-6502
▁aveug	-6503
▁baign	-6504
▁boite	-6505
▁brûlé	-6506
▁clefs	-6507
▁câlin	-6508
▁dansé	-6509
▁dette	-6510
▁décro	-6511
▁expos	-6512
▁ferez	-6513
▁gorge	-6514
▁micro	-6515
▁neuve	-6516
▁noire	-6517
▁nuclé	-6518
▁ordre	-6519
▁polie	-6520
▁réput	-6521
▁soupç	-6522
avaient	-6523
cieuses	-6524
hésitez	-6525
quipage	-6526
èvement	-6527
▁Devine	-6528
▁Montez	-6529
▁Oublie	-6530
▁Serais	-6531
▁achète	-6532
▁amitié	-6533
▁bouill	-6534
▁cauche	-6535
▁coincé	-6536
▁conclu	-6537
▁condam	-6538
▁conten	-6539
▁couche	-6540
▁couché	-6541
▁deviné	-6542
▁désert	-6543
▁détour	-6544
▁entour	-6545
▁explos	-6546
▁fausse	-6547
▁favori	-6548
▁feront	-6549
▁frappe	-6550
▁fâchée	-6551
▁impôts	-6552
▁moquer	-6553
▁orange	-6554
▁partez	-6555
▁passez	-6556
▁pilote	-6557
▁portée	-6558
▁prises	-6559
▁profit	-6560
▁quitta	-6561
▁rejeté	-6562
▁répand	-6563
▁tourné	-6564
▁tâches	-6565
▁éclaté	-6566
addition	-6567
enseigne	-6568
humanité	-6569
iendrait	-6570
▁Assieds	-6571
▁Conduis	-6572
▁Harvard	-6573
▁Reviens	-6574
▁Réfléch	-6575
▁actrice	-6576
▁attends	-6577
▁besoins	-6578
▁bougies	-6579
▁croient	-6580
▁envoyer	-6581
▁hauteur	-6582
▁humains	-6583
▁incorre	-6584
▁interpr	-6585
▁malheur	-6586
▁manquez	-6587
▁million	-6588
▁normale	-6589
▁partons	-6590
▁poignée	-6591
▁raccour	-6592
▁raconte	-6593
▁regrett	-6594
▁remarqu	-6595
▁saurais	-6596
▁saurait	-6597
▁secrets	-6598
▁soucier	-6599
▁univers	-6600
▁épaules	-6601
ascenseur	-6602
attendait	-6603
explosion	-6604
inquiéter	-6605
vaisselle	-6606
▁admettre	-6607
▁capacité	-6608
▁chambres	-6609
▁commerce	-6610
▁confiant	-6611
▁devenues	-6612
▁employés	-6613
▁endormis	-6614
▁endroits	-6615
▁excitant	-6616
▁factures	-6617
▁fréquent	-6618
▁incendie	-6619
▁interdit	-6620
▁organisé	-6621
▁parlerai	-6622
▁prévenue	-6623
▁reproche	-6624
▁respirer	-6625
▁revienne	-6626
▁réchauff	-6627
▁réserver	-6628
▁suicider	-6629
▁suivante	-6630
▁traversa	-6631
▁Apprendre	-6632
▁améliorer	-6633
▁attendent	-6634
▁camarades	-6635
▁cauchemar	-6636
▁comporter	-6637
▁considère	-6638
▁fréquence	-6639
▁naturelle	-6640
▁opération	-6641
▁policiers	-6642
▁quasiment	-6643
▁regardant	-6644
▁tentation	-6645
▁touristes	-6646
▁acceptable	-6647
▁appellerai	-6648
▁déterminer	-6649
▁kilomètres	-6650
▁prisonnier	-6651
▁conditionné	-6652
▁démissionné	-6653
▁malheureuse	-6654
▁nécessaires	-6655
▁personnelle	-6656
▁sympathique	-6657
▁construction	-6658
▁réfrigérateur	-6659
▁soigneusement	-6660
gi	-6661
ky	-6662
amm	-6663
até	-6664
dix	-6665
eng	-6666
get	-6667
ilé	-6668
mie	-6669
oût	-6670
▁Ab	-6671
▁he	-6672
▁pê	-6673
adap	-6674
agea	-6675
agez	-6676
atta	-6677
bler	-6678
cope	-6679
ermé	-6680
igme	-6681
ital	-6682
lice	-6683
oins	-6684
orth	-6685
otes	-6686
phab	-6687
rira	-6688
thme	-6689
tout	-6690
ulti	-6691
ènes	-6692
ètre	-6693
▁000	-6694
▁Dix	-6695
▁Ont	-6696
▁bud	-6697
▁chô	-6698
▁civ	-6699
▁don	-6700
▁dén	-6701
▁gym	-6702
▁hés	-6703
▁las	-6704
▁lus	-6705
▁mun	-6706
▁nia	-6707
▁pag	-6708
▁pyj	-6709
▁ray	-6710
▁van	-6711
agent	-6712
audit	-6713
const	-6714
dieux	-6715
inais	-6716
ionné	-6717
isent	-6718
ondez	-6719
oyeux	-6720
rases	-6721
rasse	-6722
trait	-6723
uivez	-6724
urant	-6725
érait	-6726
étiez	-6727
œuvre	-6728
▁Fuji	-6729
▁Mont	-6730
▁Pard	-6731
▁Rome	-6732
▁Serv	-6733
▁bass	-6734
▁boue	-6735
▁cell	-6736
▁chim	-6737
▁coca	-6738
▁fain	-6739
▁file	-6740
▁géré	-6741
▁juin	-6742
▁luxe	-6743
▁moto	-6744
▁nier	-6745
▁noyé	-6746
▁pous	-6747
▁raff	-6748
▁recr	-6749
▁réel	-6750
▁seau	-6751
▁suit	-6752
▁unif	-6753
▁vict	-6754
▁visa	-6755
▁zone	-6756
Europe	-6757
agères	-6758
auteur	-6759
ennent	-6760
illons	-6761
nation	-6762
verrou	-6763
▁Jette	-6764
▁Salut	-6765
▁admis	-6766
▁aidée	-6767
▁arrog	-6768
▁bombe	-6769
▁borde	-6770
▁brûle	-6771
▁conté	-6772
▁céléb	-6773
▁dotée	-6774
▁décla	-6775
▁défin	-6776
▁défun	-6777
▁dépit	-6778
▁déçus	-6779
▁formé	-6780
▁fuite	-6781
▁gamin	-6782
▁gosse	-6783
▁indiv	-6784
▁jette	-6785
▁lança	-6786
▁odeur	-6787
▁ouvri	-6788
▁posez	-6789
▁princ	-6790
▁prote	-6791
▁revue	-6792
▁russe	-6793
▁résol	-6794
▁sauta	-6795
▁statu	-6796
▁techn	-6797
▁teint	-6798
▁tenta	-6799
▁témoi	-6800
▁vivez	-6801
▁voilà	-6802
▁vécut	-6803
▁époux	-6804
alentin	-6805
appelez	-6806
chement	-6807
istance	-6808
obilier	-6809
opinion	-6810
écoutes	-6811
▁Italie	-6812
▁Jouons	-6813
▁aimait	-6814
▁banane	-6815
▁boîtes	-6816
▁budget	-6817
▁calcul	-6818
▁censés	-6819
▁courus	-6820
▁dettes	-6821
▁disais	-6822
▁donnes	-6823
▁dérobé	-6824
▁engagé	-6825
▁fauteu	-6826
▁fierté	-6827
▁ignoré	-6828
▁incomp	-6829
▁maître	-6830
▁nourri	-6831
▁offrit	-6832
▁partes	-6833
▁pharma	-6834
▁pleura	-6835
▁posséd	-6836
▁poussé	-6837
▁prenne	-6838
▁précip	-6839
▁retenu	-6840
▁réduit	-6841
▁révéla	-6842
▁siècle	-6843
▁songer	-6844
▁stress	-6845
▁tempor	-6846
▁tourna	-6847
▁étendu	-6848
▁études	-6849
appelles	-6850
arrivera	-6851
imaginer	-6852
immeuble	-6853
udemment	-6854
▁Assurez	-6855
▁amusées	-6856
▁assurer	-6857
▁attaqué	-6858
▁changea	-6859
▁choquée	-6860
▁concern	-6861
▁conséqu	-6862
▁crayons	-6863
▁devenus	-6864
▁divorce	-6865
▁décrire	-6866
▁fantôme	-6867
▁gratuit	-6868
▁grimper	-6869
▁mystère	-6870
▁méritez	-6871
▁panneau	-6872
▁passent	-6873
▁phrases	-6874
▁placard	-6875
▁portail	-6876
▁prennes	-6877
▁pressée	-6878
▁qualifi	-6879
▁supplie	-6880
▁utilité	-6881
▁victime	-6882
▁vivants	-6883
▁épouser	-6884
améliorer	-6885
▁Asseyons	-6886
▁Devrions	-6887
▁bataille	-6888
▁chaleure	-6889
▁charmant	-6890
▁confront	-6891
▁constitu	-6892
▁disposez	-6893
▁distrait	-6894
▁décevoir	-6895
▁déplacer	-6896
▁employer	-6897
▁entendus	-6898
▁inconsci	-6899
▁informer	-6900
▁natation	-6901
▁partirai	-6902
▁patients	-6903
▁pauvreté	-6904
▁pianiste	-6905
▁position	-6906
▁prudence	-6907
▁préparée	-6908
▁rendrait	-6909
▁scolaire	-6910
▁téléchar	-6911
▁viendras	-6912
▁Comprends	-6913
▁Promettez	-6914
▁Surveille	-6915
▁apprécier	-6916
▁attirante	-6917
▁bienvenus	-6918
▁brillante	-6919
▁contentes	-6920
▁entendues	-6921
▁exigences	-6922
▁grossière	-6923
▁parcourir	-6924
▁pouvaient	-6925
▁pratiquer	-6926
▁princesse	-6927
▁publicité	-6928
▁regardais	-6929
▁regardent	-6930
▁souvenirs	-6931
▁trouveras	-6932
▁visiteurs	-6933
▁Angleterre	-6934
▁Choisissez	-6935
▁arrivèrent	-6936
▁brièvement	-6937
▁demanderai	-6938
▁deviennent	-6939
▁embarrassé	-6940
▁enregistre	-6941
▁poursuivre	-6942
▁profondeur	-6943
▁protection	-6944
▁surprendre	-6945
▁traitement	-6946
▁téléviseur	-6947
▁Étasuniens	-6948
▁connaissiez	-6949
▁coopération	-6950
▁débrouiller	-6951
▁malchanceux	-6952
▁tranquilles	-6953
▁verrouillée	-6954
▁terriblement	-6955
▁intéressantes	-6956
Je	-6957
mm	-6958
ît	-6959
cut	-6960
més	-6961
orn	-6962
ple	-6963
ram	-6964
ril	-6965
rét	-6966
▁Br	-6967
▁ho	-6968
▁hu	-6969
▁ry	-6970
aper	-6971
auph	-6972
ionn	-6973
land	-6974
mage	-6975
otte	-6976
tait	-6977
vier	-6978
édée	-6979
œufs	-6980
▁Déb	-6981
▁Dég	-6982
▁Eff	-6983
▁Ple	-6984
▁Pos	-6985
▁USA	-6986
▁fre	-6987
▁gel	-6988
▁imb	-6989
▁nue	-6990
▁nus	-6991
▁nés	-6992
▁pen	-6993
▁pur	-6994
▁ste	-6995
▁sép	-6996
▁tig	-6997
▁tra	-6998
▁évé	-6999
activ	-7000
aucun	-7001
envir	-7002
ieuse	-7003
image	-7004
joute	-7005
nesse	-7006
ommée	-7007
shirt	-7008
usses	-7009
vingt	-7010
érées	-7011
▁Nett	-7012
▁amic	-7013
▁anxi	-7014
▁bœuf	-7015
▁chaî	-7016
▁duré	-7017
▁frig	-7018
▁hall	-7019
▁hein	-7020
▁jeta	-7021
▁jeté	-7022
▁litt	-7023
▁loge	-7024
▁mand	-7025
▁maux	-7026
▁murs	-7027
▁nana	-7028
▁obst	-7029
▁oses	-7030
▁pist	-7031
▁post	-7032
▁pèse	-7033
▁rêvé	-7034
▁scep	-7035
▁sien	-7036
▁tira	-7037
▁trib	-7038
▁unes	-7039
▁vein	-7040
atives	-7041
enfuir	-7042
ession	-7043
indust	-7044
orités	-7045
ronter	-7046
ulance	-7047
▁Celle	-7048
▁Prête	-7049
▁absor	-7050
▁addit	-7051
▁annul	-7052
▁avisé	-7053
▁battu	-7054
▁buvez	-7055
▁ceris	-7056
▁coulé	-7057
▁digne	-7058
▁décéd	-7059
▁essai	-7060
▁expri	-7061
▁gramm	-7062
▁irait	-7063
▁kilos	-7064
▁lancé	-7065
▁maîtr	-7066
▁meurt	-7067
▁miles	-7068
▁mises	-7069
▁monte	-7070
▁moque	-7071
▁noter	-7072
▁nourr	-7073
▁nôtre	-7074
▁oblig	-7075
▁occas	-7076
▁précé	-7077
▁saisi	-7078
▁septe	-7079
▁sites	-7080
▁soirs	-7081
▁taire	-7082
▁texte	-7083
▁vache	-7084
▁versé	-7085
▁voici	-7086
▁éléph	-7087
▁étant	-7088
accepte	-7089
embrass	-7090
ensable	-7091
itables	-7092
onnelle	-7093
veloppe	-7094
▁Allume	-7095
▁Parles	-7096
▁Suivez	-7097
▁Trouve	-7098
▁accent	-7099
▁amuser	-7100
▁arrêta	-7101
▁brosse	-7102
▁caract	-7103
▁chasse	-7104
▁dessin	-7105
▁diriez	-7106
▁déguis	-7107
▁endomm	-7108
▁eurent	-7109
▁fascin	-7110
▁forcés	-7111
▁frites	-7112
▁genoux	-7113
▁gérant	-7114
▁heurté	-7115
▁humain	-7116
▁introd	-7117
▁lancer	-7118
▁maigre	-7119
▁manuel	-7120
▁oublia	-7121
▁parten	-7122
▁plaire	-7123
▁poussi	-7124
▁remets	-7125
▁renfor	-7126
▁requis	-7127
▁rythme	-7128
▁répare	-7129
▁révélé	-7130
▁sauvée	-7131
▁stylos	-7132
▁suivie	-7133
▁termin	-7134
▁transm	-7135
▁utiles	-7136
▁valait	-7137
▁venons	-7138
▁vôtres	-7139
▁éprouv	-7140
▁évanou	-7141
accorder	-7142
approche	-7143
errement	-7144
exprimer	-7145
ormément	-7146
▁accoutu	-7147
▁actions	-7148
▁attaque	-7149
▁bananes	-7150
▁chômage	-7151
▁compose	-7152
▁croyait	-7153
▁dangers	-7154
▁domaine	-7155
▁déjeune	-7156
▁emboute	-7157
▁ennemis	-7158
▁entends	-7159
▁espoirs	-7160
▁essaies	-7161
▁essayez	-7162
▁faisant	-7163
▁feuille	-7164
▁horloge	-7165
▁mentent	-7166
▁mérites	-7167
▁offensé	-7168
▁presser	-7169
▁prévoir	-7170
▁pétrole	-7171
▁repouss	-7172
▁revient	-7173
▁rumeurs	-7174
▁sanglot	-7175
▁sincère	-7176
▁termine	-7177
▁terrifi	-7178
▁traîner	-7179
▁échouer	-7180
anchement	-7181
essaierai	-7182
important	-7183
obscurité	-7184
ouverture	-7185
▁affreuse	-7186
▁anglaise	-7187
▁apparent	-7188
▁attendez	-7189
▁attentif	-7190
▁auraient	-7191
▁batterie	-7192
▁brillant	-7193
▁changent	-7194
▁circonst	-7195
▁condamné	-7196
▁confondu	-7197
▁craindre	-7198
▁demandai	-7199
▁descendu	-7200
▁décevant	-7201
▁déprimée	-7202
▁effectué	-7203
▁effrayés	-7204
▁enfreint	-7205
▁entraîné	-7206
▁jeunesse	-7207
▁mangeons	-7208
▁monsieur	-7209
▁médecine	-7210
▁ouvertes	-7211
▁ouvriers	-7212
▁pagaille	-7213
▁parvenue	-7214
▁parvenus	-7215
▁plaintes	-7216
▁précieux	-7217
▁religion	-7218
▁respecté	-7219
▁retrouvé	-7220
▁secondes	-7221
▁seraient	-7222
▁serpents	-7223
▁électron	-7224
▁éveillée	-7225
▁Comprenez	-7226
▁Pourrions	-7227
▁abasourdi	-7228
▁curiosité	-7229
▁désorient	-7230
▁fortement	-7231
▁gaspiller	-7232
▁hautement	-7233
▁impliquée	-7234
▁innocence	-7235
▁magazines	-7236
▁mouvement	-7237
▁négligent	-7238
▁organisée	-7239
▁promettre	-7240
▁remarquer	-7241
▁réfléchis	-7242
▁septembre	-7243
▁souhaites	-7244
▁surmonter	-7245
▁éléphants	-7246
▁Finalement	-7247
▁américaine	-7248
▁commencent	-7249
▁commercial	-7250
▁conclusion	-7251
▁délicieuse	-7252
▁intentions	-7253
▁lesquelles	-7254
▁légèrement	-7255
▁ponctuelle	-7256
▁prudemment	-7257
▁recommande	-7258
▁rembourser	-7259
▁réputation	-7260
▁secrétaire	-7261
▁verrouillé	-7262
▁volontiers	-7263
institutrice	-7264
▁accompagner	-7265
▁disposition	-7266
▁indifférent	-7267
▁intéressées	-7268
▁préfèrerais	-7269
▁recherchent	-7270
▁gratuitement	-7271
▁personnalité	-7272
▁scientifiques	-7273
▁personnellement	-7274
iz	-7275
ru	-7276
rô	-7277
va	-7278
yd	-7279
▁ô	-7280
...	-7281
alé	-7282
eut	-7283
nés	-7284
ola	-7285
sie	-7286
uez	-7287
uée	-7288
▁Be	-7289
▁Ha	-7290
▁Sh	-7291
▁er	-7292
acte	-7293
ames	-7294
amie	-7295
ater	-7296
gnés	-7297
grés	-7298
ires	-7299
lait	-7300
oqué	-7301
orta	-7302
ouée	-7303
râce	-7304
rées	-7305
terr	-7306
udes	-7307
vées	-7308
érez	-7309
▁Buv	-7310
▁Lin	-7311
▁Sud	-7312
▁aig	-7313
▁bel	-7314
▁ber	-7315
▁flè	-7316
▁huî	-7317
▁mél	-7318
▁pic	-7319
▁rel	-7320
▁soû	-7321
▁séd	-7322
▁tom	-7323
▁émo	-7324
allai	-7325
atifs	-7326
cents	-7327
chets	-7328
culer	-7329
enver	-7330
leman	-7331
ontez	-7332
opéra	-7333
usion	-7334
âchez	-7335
▁Resp	-7336
▁aida	-7337
▁clas	-7338
▁cord	-7339
▁crié	-7340
▁dira	-7341
▁ence	-7342
▁flat	-7343
▁fout	-7344
▁gras	-7345
▁inév	-7346
▁jupe	-7347
▁jure	-7348
▁laid	-7349
▁moqu	-7350
▁médi	-7351
▁oign	-7352
▁paye	-7353
▁prog	-7354
▁pure	-7355
▁rock	-7356
années	-7357
arrang	-7358
assion	-7359
atoire	-7360
idable	-7361
olique	-7362
ologue	-7363
ortons	-7364
ènerai	-7365
▁Alice	-7366
▁accus	-7367
▁adoré	-7368
▁aimée	-7369
▁alité	-7370
▁bondé	-7371
▁douze	-7372
▁décor	-7373
▁décès	-7374
▁désag	-7375
▁enfui	-7376
▁essuy	-7377
▁extra	-7378
▁frigo	-7379
▁grève	-7380
▁idéal	-7381
▁jeudi	-7382
▁légal	-7383
▁meurs	-7384
▁monta	-7385
▁mécan	-7386
▁mémor	-7387
▁nomme	-7388
▁plats	-7389
▁pneus	-7390
▁promo	-7391
▁repar	-7392
▁saura	-7393
▁souli	-7394
▁steak	-7395
▁évité	-7396
▁êtres	-7397
annonce	-7398
apporte	-7399
arrière	-7400
dessous	-7401
ectueux	-7402
emmener	-7403
ennuyer	-7404
honneur	-7405
iendras	-7406
inviter	-7407
istence	-7408
mission	-7409
ouverte	-7410
éprouve	-7411
étrange	-7412
▁Portez	-7413
▁Servez	-7414
▁adulte	-7415
▁advenu	-7416
▁allant	-7417
▁aperçu	-7418
▁assass	-7419
▁bordel	-7420
▁calmer	-7421
▁commet	-7422
▁coudre	-7423
▁couler	-7424
▁devras	-7425
▁devrez	-7426
▁exacte	-7427
▁fières	-7428
▁frustr	-7429
▁habits	-7430
▁impoli	-7431
▁insist	-7432
▁labeur	-7433
▁lapins	-7434
▁maigri	-7435
▁manche	-7436
▁mangée	-7437
▁objets	-7438
▁ongles	-7439
▁outils	-7440
▁phares	-7441
▁poèmes	-7442
▁pyjama	-7443
▁raccro	-7444
▁ranger	-7445
▁retire	-7446
▁rouler	-7447
▁réside	-7448
▁soldat	-7449
▁source	-7450
▁strict	-7451
▁trains	-7452
▁volant	-7453
▁voyons	-7454
▁étonné	-7455
appareil	-7456
chitecte	-7457
estement	-7458
idemment	-7459
évidence	-7460
▁Arrivez	-7461
▁Verriez	-7462
▁aimable	-7463
▁allumer	-7464
▁baleine	-7465
▁censées	-7466
▁danseur	-7467
▁dessous	-7468
▁diamant	-7469
▁dingues	-7470
▁dormait	-7471
▁décidée	-7472
▁décédée	-7473
▁dépense	-7474
▁effecti	-7475
▁faciles	-7476
▁horaire	-7477
▁huîtres	-7478
▁indique	-7479
▁indiqué	-7480
▁moyenne	-7481
▁oignons	-7482
▁partent	-7483
▁partiez	-7484
▁proposé	-7485
▁raconta	-7486
▁renvoyé	-7487
▁revenus	-7488
▁réponds	-7489
▁serveur	-7490
▁séjourn	-7491
▁trompes	-7492
▁vertige	-7493
▁weekend	-7494
▁écoutez	-7495
▁écrivit	-7496
assurance	-7497
honnêteté	-7498
▁Aussitôt	-7499
▁Canadien	-7500
▁Dépêchez	-7501
▁Monsieur	-7502
▁accompag	-7503
▁acquérir	-7504
▁argument	-7505
▁augmenté	-7506
▁avantage	-7507
▁changera	-7508
▁contient	-7509
▁couleurs	-7510
▁criminel	-7511
▁curieuse	-7512
▁devenait	-7513
▁débutant	-7514
▁déménage	-7515
▁dépenses	-7516
▁garderai	-7517
▁hospital	-7518
▁insectes	-7519
▁longueur	-7520
▁offensée	-7521
▁patiente	-7522
▁perplexe	-7523
▁procurer	-7524
▁producti	-7525
▁reprises	-7526
▁retourna	-7527
▁richesse	-7528
▁résister	-7529
▁soulever	-7530
▁souvient	-7531
▁surprend	-7532
▁tiennent	-7533
▁totalité	-7534
▁tracasse	-7535
▁véhicule	-7536
infirmière	-7537
▁accomplir	-7538
▁allumette	-7539
▁atteignit	-7540
▁casquette	-7541
▁classique	-7542
▁consacrer	-7543
▁conserver	-7544
▁consommer	-7545
▁décisions	-7546
▁désespéré	-7547
▁détestait	-7548
▁frontière	-7549
▁gentleman	-7550
▁grammaire	-7551
▁gravement	-7552
▁honnêteté	-7553
▁inquiétez	-7554
▁objectifs	-7555
▁objection	-7556
▁participé	-7557
▁propriété	-7558
▁solitaire	-7559
▁trouverez	-7560
intéressant	-7561
▁Remplissez	-7562
▁allergique	-7563
▁canadienne	-7564
▁chirurgien	-7565
▁compassion	-7566
▁construire	-7567
▁cuisinière	-7568
▁dangereuse	-7569
▁importants	-7570
▁satisfaire	-7571
▁serviettes	-7572
▁trouvaient	-7573
▁Franchement	-7574
▁adolescents	-7575
▁commerciale	-7576
▁compétition	-7577
▁disponibles	-7578
▁enseignants	-7579
▁franchement	-7580
▁recommencer	-7581
▁rencontriez	-7582
▁ressemblait	-7583
▁travaillait	-7584
▁verrouiller	-7585
▁commencèrent	-7586
▁millionnaire	-7587
▁photographie	-7588
▁propriétaire	-7589
bi	-7590
ly	-7591
pé	-7592
yg	-7593
Esp	-7594
abl	-7595
ago	-7596
ane	-7597
ano	-7598
anç	-7599
cie	-7600
cit	-7601
ker	-7602
oua	-7603
tat	-7604
âts	-7605
élé	-7606
ûte	-7607
▁Ac	-7608
▁bû	-7609
▁ge	-7610
▁iP	-7611
▁Év	-7612
acté	-7613
allé	-7614
anim	-7615
ator	-7616
bons	-7617
cinq	-7618
cipe	-7619
dain	-7620
ects	-7621
ende	-7622
fici	-7623
imes	-7624
lers	-7625
lymp	-7626
olés	-7627
onté	-7628
ouge	-7629
oule	-7630
rand	-7631
rime	-7632
sier	-7633
ules	-7634
éder	-7635
éque	-7636
▁Emm	-7637
▁Enf	-7638
▁Ici	-7639
▁Voy	-7640
▁bra	-7641
▁cic	-7642
▁dus	-7643
▁gau	-7644
▁her	-7645
▁lot	-7646
▁sai	-7647
▁tab	-7648
▁tue	-7649
▁tuy	-7650
▁yen	-7651
▁édu	-7652
▁œuf	-7653
adies	-7654
amène	-7655
ancée	-7656
arant	-7657
arine	-7658
armes	-7659
avent	-7660
envie	-7661
fique	-7662
icago	-7663
idité	-7664
illet	-7665
itive	-7666
itter	-7667
lable	-7668
lande	-7669
llent	-7670
onnés	-7671
phère	-7672
rirai	-7673
tages	-7674
▁Lire	-7675
▁Mars	-7676
▁Soit	-7677
▁Souh	-7678
▁acte	-7679
▁agis	-7680
▁aîné	-7681
▁bagu	-7682
▁band	-7683
▁créa	-7684
▁flot	-7685
▁frot	-7686
▁gron	-7687
▁gère	-7688
▁honn	-7689
▁iras	-7690
▁jazz	-7691
▁lien	-7692
▁lycé	-7693
▁maît	-7694
▁menu	-7695
▁opin	-7696
▁plié	-7697
▁porc	-7698
▁radi	-7699
▁rass	-7700
▁rati	-7701
▁roug	-7702
▁taqu	-7703
▁tint	-7704
▁tolé	-7705
▁vari	-7706
adress	-7707
aisses	-7708
aliser	-7709
aliste	-7710
alphab	-7711
astron	-7712
ension	-7713
iciens	-7714
inistr	-7715
liquer	-7716
orange	-7717
ouvrit	-7718
rèrent	-7719
ueilli	-7720
▁Aussi	-7721
▁Coupe	-7722
▁Quant	-7723
▁Vivez	-7724
▁agent	-7725
▁armée	-7726
▁bande	-7727
▁bourg	-7728
▁coule	-7729
▁coupa	-7730
▁dauph	-7731
▁distr	-7732
▁délai	-7733
▁désas	-7734
▁emmén	-7735
▁finie	-7736
▁fonds	-7737
▁fondu	-7738
▁fusil	-7739
▁gliss	-7740
▁guide	-7741
▁guéri	-7742
▁gâché	-7743
▁horri	-7744
▁impit	-7745
▁jouet	-7746
▁latin	-7747
▁maths	-7748
▁mince	-7749
▁optim	-7750
▁pendu	-7751
▁pensa	-7752
▁peser	-7753
▁piqué	-7754
▁pitié	-7755
▁plong	-7756
▁poign	-7757
▁quart	-7758
▁ronde	-7759
▁saign	-7760
▁saine	-7761
▁sauce	-7762
▁scand	-7763
▁sensé	-7764
▁soupé	-7765
▁stopp	-7766
▁sèche	-7767
▁taper	-7768
▁tatou	-7769
▁tortu	-7770
▁tremp	-7771
▁vends	-7772
▁volée	-7773
▁Étant	-7774
▁émoti	-7775
▁épais	-7776
Espagne	-7777
attrape	-7778
ciation	-7779
endrier	-7780
habille	-7781
iendrez	-7782
italien	-7783
monnaie	-7784
oindrai	-7785
ouiller	-7786
parlers	-7787
ruption	-7788
▁Celles	-7789
▁Compar	-7790
▁Entrez	-7791
▁Malgré	-7792
▁Soyons	-7793
▁abattu	-7794
▁aboyer	-7795
▁acquis	-7796
▁affamé	-7797
▁anéant	-7798
▁arrête	-7799
▁balles	-7800
▁caches	-7801
▁chaîne	-7802
▁cordes	-7803
▁courts	-7804
▁couvre	-7805
▁craint	-7806
▁crimes	-7807
▁degrés	-7808
▁droits	-7809
▁déclen	-7810
▁dégâts	-7811
▁déprim	-7812
▁empire	-7813
▁enlevé	-7814
▁estimé	-7815
▁figure	-7816
▁fréque	-7817
▁gâcher	-7818
▁herbes	-7819
▁humide	-7820
▁idiots	-7821
▁jouets	-7822
▁joyeux	-7823
▁jusque	-7824
▁lundis	-7825
▁marron	-7826
▁mentez	-7827
▁mordre	-7828
▁opposé	-7829
▁option	-7830
▁pardon	-7831
▁parfum	-7832
▁peinte	-7833
▁perdez	-7834
▁peuple	-7835
▁pluies	-7836
▁procès	-7837
▁retent	-7838
▁revint	-7839
▁rideau	-7840
▁romant	-7841
▁réclam	-7842
▁récomp	-7843
▁statue	-7844
▁tombés	-7845
▁ventre	-7846
▁voulut	-7847
▁écrasé	-7848
▁élevée	-7849
▁étoile	-7850
Valentin	-7851
affaires	-7852
ambition	-7853
appelait	-7854
auraient	-7855
escalier	-7856
▁Appréci	-7857
▁Bonjour	-7858
▁Chicago	-7859
▁Promets	-7860
▁Prépare	-7861
▁Sortons	-7862
▁affecte	-7863
▁arrangé	-7864
▁asseyez	-7865
▁avocats	-7866
▁coincée	-7867
▁compens	-7868
▁corresp	-7869
▁devrons	-7870
▁donnent	-7871
▁démarré	-7872
▁déplace	-7873
▁déposer	-7874
▁déroule	-7875
▁détaill	-7876
▁gagnera	-7877
▁habiter	-7878
▁inconnu	-7879
▁limites	-7880
▁meurent	-7881
▁mouches	-7882
▁moutons	-7883
▁méprise	-7884
▁oranges	-7885
▁paraiss	-7886
▁partagé	-7887
▁pierres	-7888
▁pourras	-7889
▁pénétré	-7890
▁rejoint	-7891
▁restera	-7892
▁restées	-7893
▁réserve	-7894
▁sachant	-7895
▁servent	-7896
▁sortons	-7897
▁souciez	-7898
▁soulevé	-7899
▁surface	-7900
▁talents	-7901
▁tomates	-7902
▁tombées	-7903
▁trompez	-7904
▁version	-7905
▁Écoutez	-7906
▁échangé	-7907
abandonne	-7908
industrie	-7909
lympiques	-7910
occuperai	-7911
▁Descends	-7912
▁Disposes	-7913
▁Laissons	-7914
▁advienne	-7915
▁arranger	-7916
▁arrivait	-7917
▁attendit	-7918
▁attirant	-7919
▁canadien	-7920
▁carottes	-7921
▁carrière	-7922
▁cuisines	-7923
▁diplômée	-7924
▁	-7925
e	-7926
s	-7927
a	-7928
i	-7929
u	-7930
t	-7931
n	-7932
r	-7933
o	-7934
l	-7935
p	-7936
m	-7937
d	-7938
.	-7939
c	-7940
v	-7941
é	-7942
'	-7943
q	-7944
f	-7945
J	-7946
b	-7947
h	-7948
-	-7949
g	-7950
?	-7951
j	-7952
à	-7953
T	-7954
z	-7955
x	-7956
I	-7957
è	-7958
C	-7959
ê	-7960
y	-7961
,	-7962
L	-7963
N	-7964
E	-7965
V	-7966
P	-7967
ç	-7968
M	-7969
Q	-7970
!	-7971
A	-7972
S	-7973
D	-7974
O	-7975
û	-7976
ô	-7977
î	-7978
ù	-7979
â	-7980
Ç	-7981
R	-7982
U	-7983
B	-7984
k	-7985
œ	-7986
F	-7987
’	-7988
Ê	-7989
À	-7990
0	-7991
É	-7992
Y	-7993
w	-7994
1	-7995
H	-7996
